[PAD]
[UNK]
[CLS]
[SEP]
[MASK]
<S>
<T>
!
"
#
$
%
&
'
(
)
*
+
,
-
.
/
0
1
2
3
4
5
6
7
8
9
:
;
<
=
>
?
@
[
\
]
^
_
`
a
b
c
d
e
f
g
h
i
j
k
l
m
n
o
p
q
r
s
t
u
v
w
x
y
z
{
|
}
~
¡
¢
£
¤
¥
¦
§
¨
©
ª
«
¬
®
¯
°
±
²
³
´
µ
¶
·
¸
¹
º
»
¼
½
¾
¿
×
ß
æ
ð
÷
ø
þ
đ
ħ
ı
ĸ
ŀ
ł
ŋ
œ
ŧ
ſ
ƍ
ƒ
ƙ
ƛ
ƞ
ƥ
ƭ
ƴ
ƶ
ƹ
ƿ
ǀ
ǁ
ǂ
ǥ
ȡ
ȷ
ɑ
ɖ
ɗ
ə
ɛ
ɜ
ɡ
ɣ
ɤ
ɨ
ɩ
ɪ
ɭ
ɳ
ɵ
ɷ
ɸ
ɽ
ɿ
ʃ
ʄ
ʇ
ʈ
ʊ
ʋ
ʌ
ʎ
ʓ
ʘ
ʟ
ʹ
ʺ
ʻ
ʼ
˂
˃
˄
˅
ˆ
ˇ
ˈ
ˉ
ˊ
ˎ
ː
ˑ
˖
˗
˘
˙
˚
˛
˜
˝
˟
ˣ
˭
ˮ
˳
˶
˿
ͽ
΄
΢
α
β
γ
δ
ε
ζ
η
θ
ι
κ
λ
μ
ν
ξ
ο
π
ρ
ς
σ
τ
υ
φ
χ
ψ
ω
ϑ
ϒ
ϕ
ϖ
ϛ
ϝ
ϟ
ϣ
ϫ
ϭ
ϯ
ϰ
ϱ
ϲ
ϵ
϶
ϻ
ϼ
а
б
в
г
д
е
ж
з
и
к
л
м
н
о
п
р
с
т
у
ф
х
ц
ч
ш
щ
ъ
ы
ь
э
ю
я
є
ѕ
і
ј
ћ
ѡ
ѱ
ѳ
ѵ
҂
ҏ
ґ
ҡ
ҫ
ұ
һ
ӄ
ӏ
ө
ӿ
ԏ
ԑ
՛
՜
դ
հ
ղ
ո
ս
ց
ւ
փ
׀
׃
ג
ט
׳
״
،
ا
ب
ة
ح
د
ر
ـ
ل
م
و
ي
٠
٧
٭
۰
ᄑ
ᅯ
ᆽ
ᴂ
ᴅ
ᴠ
ᴦ
ᴧ
ᴨ
ᴫ
ᴼ
ᵒ
ᵞ
ᵟ
ᵡ
ᵢ
ᵦ
ᶦ
ᶱ
ẟ
᾽
‐
‑
‒
–
—
―
‖
‘
’
‚
‛
“
”
„
‟
†
‡
•
․
‥
…
‧
‰
‱
′
″
‴
‵
‹
›
※
‾
‿
⁀
⁁
⁃
⁄
⁎
⁓
⁗
⁰
⁴
⁵
⁶
⁸
⁺
⁻
₀
₁
₂
₃
₄
₅
₆
₇
₈
₋
ₐ
ₒ
ₓ
₠
₤
₩
€
₵
₹
₺
⃞
ℂ
℃
℅
ℇ
℉
ℊ
ℋ
ℌ
ℍ
ℎ
ℏ
ℐ
ℑ
ℒ
ℓ
ℕ
№
℘
ℙ
ℚ
ℛ
ℜ
ℝ
™
ℤ
℧
ℬ
ℭ
ℰ
ℱ
ℳ
ℵ
ℶ
ℷ
ℸ
ℽ
ℾ
⅀
ⅅ
ⅆ
ⅇ
ⅈ
⅓
⅔
⅛
⅜
⅝
ⅰ
ⅱ
ⅲ
ⅳ
ⅴ
ⅵ
ⅶ
ⅷ
ⅸ
ⅹ
←
↑
→
↓
↔
↕
↖
↗
↘
↙
↝
↠
↦
↪
↬
↶
↷
↼
↽
↿
⇀
⇁
⇂
⇄
⇅
⇆
⇈
⇉
⇊
⇋
⇌
⇐
⇑
⇒
⇓
⇔
⇕
⇛
⇝
⇢
⇨
⇵
∀
∁
∂
∃
∅
∆
∇
∈
∊
∋
∍
∎
∏
∐
∑
−
∓
∕
∖
∗
∘
∙
√
∝
∞
∟
∠
∡
∢
∣
∥
∧
∨
∩
∪
∫
∬
∭
∮
∯
∰
∱
∴
∵
∶
∷
∸
∼
∽
∿
≀
≂
≃
≅
≈
≊
≌
≍
≏
≐
≑
≒
≓
≔
≕
≗
≙
≜
≝
≡
≤
≥
≦
≧
≪
≫
≲
≳
≶
≷
≺
≻
≼
≽
≾
≿
⊂
⊃
⊆
⊇
⊊
⊋
⊎
⊏
⊑
⊒
⊓
⊔
⊕
⊖
⊗
⊘
⊙
⊚
⊛
⊝
⊞
⊟
⊠
⊡
⊢
⊣
⊤
⊥
⊨
⊩
⊲
⊳
⊶
⊺
⊻
⊿
⋀
⋁
⋂
⋃
⋄
⋅
⋆
⋇
⋈
⋉
⋋
⋍
⋏
⋐
⋘
⋙
⋚
⋛
⋮
⋯
⋰
⋱
⌀
⌂
⌈
⌉
⌊
⌋
⌖
⌜
⌝
⌞
⌟
⌠
⌡
⌢
⌣
⌻
⍴
⍵
⍺
⎓
⎕
⎪
⎯
⎴
⎵
⏊
⏜
⏞
⏟
␣
①
②
③
④
⑤
⑥
⑦
⑧
⑨
⑩
⑪
⑫
⑬
⑭
ⓐ
ⓑ
ⓒ
ⓓ
ⓔ
ⓕ
ⓜ
ⓡ
─
│
┄
├
┴
┼
═
║
╡
╳
░
▒
▓
■
□
▩
▪
▫
▬
▭
▯
▱
▲
△
▴
▵
▶
▷
▸
▹
►
▼
▽
▾
▿
◀
◁
◂
◃
◆
◇
◊
○
◎
●
◦
◯
◻
◼
★
☆
☐
☒
☓
☰
☼
♀
♂
♠
♢
♣
♥
♦
♭
♮
♯
⚫
✓
✔
✕
✗
✠
❑
❖
❶
❷
❸
❹
❺
➀
➁
➂
➃
➄
➅
➆
➊
➋
➌
➔
➙
➝
➡
➢
➣
⟘
⟦
⟧
⟨
⟩
⟵
⟶
⟷
⟸
⟹
⟺
⟼
⟿
⠀
⢢
⤢
⤳
⥂
⥄
⦀
⦁
⦵
⦶
⧠
⧧
⧫
⧸
⧹
⧺
⨀
⨁
⨂
⨄
⨆
⨉
⨌
⨍
⨎
⨏
⨐
⨖
⨥
⨪
⨯
⨿
⩝
⩽
⩾
⪅
⪆
⪋
⪌
⪖
⪝
⪞
⪡
⪢
⪯
⪰
⫋
⫫
⫶
⫽
⫿
⬄
⬜
ⱬ
ⱱ
⸧
⸰
⸱
⸳
⿠
⿡
⿢
⿤
⿥
⿦
⿪
⿫
⿮
⿯
⿲
⿳
⿶
⿼
⿿
、
。
〈
〉
《
》
「
」
【
】
〔
〕
〖
〗
〚
〛
〜
〞
゜
・
㎍
㎏
㎘
㎛
㎜
㎝
㎡
㎥
一
丨
中
公
创
司
和
品
国
大
学
张
我
新
染
气
污
环
田
的
绿
色
行
雾
霾
ꓕ
ꜫ
ꝏ
꞊
ꞌ
ꞏ
ꞵ
ꭓ
ﬀ
ﬁ
ﬂ
ﬃ
ﬄ
﬩
︒
︱
︵
︶
︷
︸
︹
﹒
﹢
﹣
﹤
﹥
﹨
％
＆
＇
（
）
＋
，
－
．
１
：
；
＜
＝
＞
？
［
］
ｄ
ｌ
ｍ
ｗ
ｘ
｛
｜
｝
～
､
･
￥
##2
##1
##¯
##γ
##r
##o
##b
##l
##e
##m
##k
##α
##j
##φ
##u
##δ
##p
##ρ
##g
##i
##n
##t
##h
##a
##s
##c
##f
##z
##d
##⋅
##ω
##ξ
##x
##−
##y
##˜
##∗
##0
##°
##3
##6
##⟶
##q
##≔
##∂
##ℒ
##τ
##v
##±
##∑
##9
##×
##5
##ψ
##w
##7
##∥
##β
##∣
##μ
##λ
##θ
##∇
##4
##π
##η
##∈
##≥
##⿿
##8
##ε
##⩽
##∫
##∞
##ϵ
##≤
##σ
##χ
##ϱ
##∕
##ϕ
##→
##∼
##˙
##⊥
##⊂
##≈
##κ
##ˆ
##⋯
##ν
##ı
##≃
##∘
##ℜ
##ζ
##ℓ
##√
##⇒
##⦀
##ϒ
##⟺
##⇋
##∙
##≡
##∀
##ħ
##∩
##⩾
##∏
##⇌
##∃
##≅
##≫
##∝
##ϖ
##⊗
##≪
##⇄
##↑
##о
##⋱
##ϑ
##ℝ
##⋍
##ʺ
##ℏ
##＜
##⋮
##¨
##▒
##®
##∅
##⿲
##∊
##∪
##⊕
##⊣
##ɛ
##™
##⧹
##˘
##⇔
##ς
##←
##⊤
##µ
##∬
##⇀
##⋂
##≲
##υ
##£
##ⅆ
##∧
##⿢
##∓
##⇆
##↔
##ℕ
##∆
##∮
##ы
##щ
##⪡
##đ
##≦
##⧸
##´
##л
##ч
##н
##и
##я
##ʹ
##ﬁ
##≒
##€
##⟷
##゜
##⁄
##÷
##∖
##⊆
##☆
##ℛ
##∶
##⏟
##ο
##˚
##≐
##∨
##≺
##⎴
##æ
##✓
##⟵
##м
##≜
##º
##с
##ⅈ
##△
##⑤
##ˇ
##ɳ
##⌢
##ø
##ꜫ
##＝
##↓
##ι
##★
##ט
##□
##∋
##ł
##©
##²
##℃
##▵
##↦
##⪢
##℉
##т
##⌞
##⌝
##➔
##⏞
##∰
##▲
##⌟
##ⅱ
##ⅲ
##∭
##↗
##ð
##ﬂ
##₄
##⊺
##ȷ
##п
##∯
##ɸ
##℘
##е
##⊚
##＞
##⁰
##ß
##ⅇ
##⋆
##⊙
##ª
##♯
##¬
##ℵ
##ℂ
##⌣
##ℱ
##¹
##⋄
##♢
##ﬄ
##⌂
##≙
##в
##а
##ℬ
##⋘
##∴
##ƛ
##˗
##≻
##ꓕ
##∠
##⇓
##ϰ
##▽
##∽
##₂
##≾
##ⅰ
##к
##ю
##꞊
##ˉ
##⦁
##▪
##✠
##ш
##⪯
##ℐ
##⁵
##⁺
##⟹
##∁
##⇐
##≳
##↼
##↽
##ф
##г
##⋃
##ⓡ
##≼
##ʼ
##ˈ
##³
##⪆
##д
##⿼
##х
##з
##▿
##㎜
##ﬀ
##○
##ᵒ
##▷
##⊡
##①
##＋
##ⅴ
##҂
##˂
##②
##ƞ
##⊖
##⊇
##│
##↘
##є
##ℙ
##ℋ
##˟
##ƒ
##΄
##⊃
##～
##ℳ
##≕
##∵
##☓
##₃
##¢
##ҡ
##ſ
##⿤
##↪
##─
##ℌ
##¸
##⪰
##⊝
##ℑ
##і
##﹥
##⋰
##⏜
##⿫
##➝
##⥄
##③
##ͽ
##♭
##˝
##ℚ
##≧
##▬
##ⓑ
##℧
##⿥
##ϝ
##⇝
##ɵ
##┴
##ѕ
##ℤ
##░
##ｘ
##˭
##≿
##ʌ
##⤳
##б
##ж
##˛
##≌
##⨁
##ᵢ
##⨍
##⨯
##⊊
##⫿
##ћ
##ц
##■
##ⅳ
##ɡ
##ⅹ
##●
##≶
##⨂
##◊
##▹
##ɑ
##½
##≂
##✕
##⋐
##◯
##⁻
##⋙
##⨎
##ǂ
##◦
##ː
##⊔
##ǁ
##˃
##⋀
##ь
##║
##ѵ
##≊
##ᴠ
##у
##р
##¼
##⊢
##ԑ
##⦵
##↖
##₵
##⇑
##œ
##ϲ
##⿳
##⪅
##⑥
##⊘
##⊲
##≑
##⫋
##ѳ
##ʈ
##⇁
##≷
##▯
##ˑ
##∷
##④
##ϟ
##⿦
##１
##₩
##⊳
##₀
##₁
##ˎ
##˿
##ꞌ
##þ
##ǀ
##ʎ
##⌻
##ℰ
##ℾ
##⇉
##ˊ
##⢢
##ј
##♦
##≍
##ẟ
##ʟ
##⨪
##∐
##᾽
##▴
##⿡
##ʋ
##ˣ
##ℭ
##⨀
##₈
##₅
##ˮ
##˖
##▭
##⊑
##∢
##♀
##₆
##ⅅ
##⇂
##⅓
##≽
##⤢
##¥
##ʃ
##￥
##ℇ
##═
##¾
##ᶱ
##ɷ
##｜
##⫫
##⊻
##ـ
##ƶ
##㎛
##﹤
##┄
##♣
##⊠
##⋏
##♂
##ｗ
##ｄ
##ƙ
##ѡ
##₋
##☰
##˳
##ₒ
##ҫ
##⿠
##✗
##ꞏ
##ɣ
##⥂
##﹢
##¦
##⫶
##ℍ
##ᴦ
##ة
##⌀
##⟼
##↷
##٠
##▸
##↕
##ᴼ
##⊎
##►
##⌜
##☐
##ⓜ
##ȡ
##ǥ
##♠
##≗
##ө
##⇕
##⑨
##⋁
##↶
##∍
##♮
##ℷ
##ⅵ
##﬩
##ⅶ
##∡
##و
##ᴨ
##⨖
##ʻ
##⿯
##э
##۰
##ƴ
##➡
##◃
##ℎ
##➀
##⋇
##⪞
##⊶
##␣
##ϭ
##ᴂ
##㎡
##⊟
##⊞
##ѱ
##⨿
##➙
##◁
##⟿
##⑩
##⍺
##㎏
##⍴
##⇛
##ﬃ
##ᄑ
##⋉
##⇨
##ս
##ɨ
##⪌
##ƍ
##➅
##➆
##ｍ
##▶
##₹
##ŋ
##⎵
##ᅯ
##ᆽ
##˄
##ɿ
##⁴
##⇢
##⬜
##⊿
##ℸ
##ي
##ر
##ب
##د
##ا
##⧺
##ⅷ
##⎯
##♥
##⑧
##ⱱ
##↙
##⎪
##˅
##⊛
##➄
##ɤ
##ᶦ
##◇
##⨌
##ⓓ
##≓
##▾
##⍵
##⟸
##∱
##ĸ
##▓
##⇵
##↠
##↝
##ʘ
##⊏
##ŀ
##▼
##⋛
##⇅
##ₓ
##⅜
##◀
##⊩
##▱
##⏊
##₇
##ɽ
##ⓒ
##⊒
##ɩ
##⌡
##ɭ
##⑦
##⧧
##΢
##ϛ
##⊓
##⪖
##╳
##➢
##≝
##ґ
##⨆
##⁸
##⫽
##ɖ
##ⅸ
##╡
##⅀
##ƿ
##ح
##ل
##ɪ
##⩝
##℅
##⿶
##㎝
##ϣ
##ʇ
##ℊ
##϶
##➃
##⦶
##⨄
##▩
##¤
##⨐
##ꝏ
##⎕
##ℶ
##⪋
##˶
##ᴧ
##ӿ
##⋚
##⨉
##№
##⌠
##❖
##∎
##ɜ
##ᵦ
##⇈
##⅔
##ⓐ
##◆
##փ
##ϻ
##ⱬ
##ъ
##▫
##⅝
##ₐ
##㎥
##⿮
##⅛
##⌖
##⠀
##⎓
##⟘
##➁
##⇊
##ᵞ
##⁶
##ᵟ
##⚫
##⊋
##⑪
##⿪
##┼
##م
##ｌ
##≀
##ɗ
##ə
##ϯ
##ʓ
##ʄ
##ұ
##ʊ
##≏
##⪝
##◼
##⊨
##ղ
##ⓕ
##➂
##ƭ
##₤
##◻
##⃞
##ℽ
##⨏
##↬
##ո
##├
##⬄
##ⓔ
##հ
##⋋
##∸
##ӏ
##❷
##❸
##❹
##❶
##һ
##⑫
##⋈
##ԏ
##٧
##ƹ
##➣
##⧠
##㎍
##ҏ
##ꞵ
##ᵡ
##◂
##ᴫ
##ŧ
##₠
##ց
##◎
##⑭
##ᴅ
##ƥ
##դ
th
the
##er
##on
##ti
##ed
##es
##en
##in
##or
of
##at
in
##al
##tion
##nd
##re
##an
##ro
and
##as
##it
##ar
##ic
##ec
to
##ing
##ent
##el
##ation
##is
##ac
##ol
##et
##ur
##mp
is
##ul
##ig
for
con
##le
co
##st
##ow
st
##id
##il
##ith
re
##ly
##uc
with
pro
al
as
##im
##ou
be
##ve
##os
##th
##ce
was
##ect
on
##ff
##ter
at
##ure
##od
##um
##ity
##tic
##ess
wh
ex
by
an
##em
##am
##ere
that
##ate
are
res
##ab
##ated
##ain
##ts
##ri
sh
##ver
##ot
ch
##tin
##ad
##om
##si
ac
di
##igh
##ge
##rom
##ir
us
de
##pp
##qu
comp
##ting
##ut
were
this
##iz
su
from
sp
##00
##per
pr
##ment
##ay
en
fig
##se
##oc
or
##ase
##tiv
inc
ph
##lu
##ater
##for
ad
dis
##ap
##ich
##ition
##yst
##ical
##ran
par
##fac
str
##ant
##duc
##ch
##ted
##op
##low
can
high
mod
##if
show
##ers
ob
which
sol
diff
##tive
##ell
cont
##ence
met
sur
##ine
##able
##ations
##ous
##ely
##us
it
te
##sion
##erat
##ution
##les
per
##all
##ial
##ak
surfac
eff
app
##ore
et
##action
el
20
temp
incre
se
##ther
##ud
resul
temperat
##alu
##ag
##ance
##act
ha
int
##form
##ding
inter
##og
##ved
surface
##ies
pl
ab
we
##yd
##ib
##un
pre
sa
me
##ased
he
imp
##rou
differ
##aly
##ach
ne
temperature
##dition
##cess
elect
##str
##eter
bet
ind
tran
model
##tial
##and
form
not
valu
conc
##so
##ating
##age
##ide
##tain
##ign
un
##ents
used
10
##sor
##rib
meth
hyd
##uct
##ound
cons
le
rel
using
stud
##ion
##ied
low
tim
##we
have
than
##ility
##ip
produc
water
also
rep
##erg
ev
##yl
resp
sc
car
##vi
##gh
##ates
dec
##ration
samp
##ween
##ific
between
exp
pres
##ties
process
##ds
hydro
trans
##uld
##ph
##ong
##gen
##ary
has
##ight
##ite
sub
##vel
##tively
##ystem
##ms
##enc
##est
##mm
dep
##ally
201
pol
system
partic
results
mo
these
##ort
cr
tw
fil
ox
##ra
des
##ction
equ
sim
##ici
##ue
##ech
concent
analy
cor
##ari
##ens
acc
more
cat
li
##ption
##−1
all
exper
so
##ves
##ection
##uch
flow
time
solution
there
different
##ass
been
red
am
method
energ
no
##ized
struct
ag
cal
und
##res
two
##ric
fe
obtain
meas
##ser
##ble
##ree
##ang
##yn
experim
##te
##ose
##der
##ures
num
##tim
##ear
##ix
af
##ati
bi
##fer
shown
##ases
where
effect
energy
##ps
rec
ass
200
gr
##end
##ene
##ist
spec
pe
obser
compar
##tivity
##ub
char
under
##ill
mic
##ork
##ange
nan
reaction
##par
##cul
bo
perform
##ron
after
##ected
condition
vari
##aterial
##mo
reduc
##ber
##tical
reg
rate
##ined
mol
cell
dat
##sis
cl
##ectively
material
##iv
due
19
##ative
##ization
##uring
when
qu
##ame
higher
flu
how
gen
##ability
ste
po
obtained
col
##osition
##ular
dist
micro
into
##ize
##ium
##ors
data
##ym
based
##out
##mal
sign
press
adsor
min
other
##yp
12
such
##ile
##iel
ma
fol
ther
##unction
cur
lay
respectively
one
over
##olog
##acter
concentration
##gr
op
##o2
supp
##ard
##ond
calcul
##ack
##pl
values
##ever
##eng
spect
observed
however
decre
##alyst
lar
##tr
##fore
present
electro
##oun
phase
study
appl
ca
out
carb
15
appro
follow
##ia
##ments
heat
fin
both
##xim
##emb
##ential
indic
si
##ider
bec
function
gener
param
ar
fr
pressure
gas
11
sm
its
experiment
peak
during
vol
value
consider
##ensity
table
tr
##ency
##row
ver
##anc
fur
proper
but
their
deter
number
samples
typ
catalyst
mix
##orted
##emical
each
up
increase
lo
##adi
##til
es
##our
##ness
conditions
found
work
##de
grou
##ome
##ail
fir
structure
##ress
only
determ
##lo
acid
##ould
addition
rati
order
cap
##au
##rough
memb
##ength
##°c
##ane
well
analysis
then
##ribution
##sc
further
shows
##ry
prop
ion
##2o
signific
size
carbon
eq
##ast
##ield
membran
could
##rol
layer
first
pos
##ust
##ox
character
main
##yc
##reat
inf
##ured
small
through
significant
simul
non
##icient
##rr
case
##cc
##tig
det
fact
lower
em
def
##osed
grow
may
##velop
dire
##ded
##ick
man
sl
##ough
control
properties
##echn
##one
fl
100
same
25
inves
phot
pow
develop
investig
##ual
molec
simil
sel
##atter
while
pa
##ensi
ratio
electron
poin
sample
techn
similar
adsorption
##ective
##ie
pot
compared
go
30
##ension
##eters
13
measure
##pt
particles
transfer
ti
##ct
conduc
°c
therefore
ter
three
cryst
##echan
##ha
oxid
loc
##ob
prov
com
mechan
##asing
##tal
ini
##her
##als
##vious
##ited
##let
##gan
##ss
range
##resp
line
section
most
increased
##ount
mass
sin
const
##ture
corresp
##led
thermal
liqu
reported
##atic
##lement
##ural
load
distribution
##ement
##eff
experimental
14
mon
thus
area
mean
##ace
hydrogen
density
##ause
syn
chemical
##aph
because
will
region
performance
level
formation
##agn
##eloc
parameters
fu
mat
some
liquid
use
##own
##ites
substr
##ys
calculated
optim
conf
potential
##10
air
veloc
##ann
prepar
16
oper
inclu
##istic
volum
impro
##ving
cm
set
polym
vis
##ma
remo
wa
##ities
cu
##tif
##uted
disc
coeff
occ
##ke
contain
##ination
measured
maxim
materials
ref
initial
sec
they
##ology
large
accor
##amic
##hib
atom
total
##rop
##lex
50
##que
##over
##ently
membrane
desc
solid
##ention
about
comb
lim
att
applic
film
particle
giv
correspon
constant
por
pred
aver
##ays
##ex
beha
##val
very
design
##ole
##are
##tit
activity
dim
production
increasing
import
bound
##ish
effici
##ove
velocity
##ried
##cm
##ory
conver
thick
im
##formation
lead
treat
repres
metal
following
growth
given
behavi
##ides
mg
according
au
##ified
requ
above
##vir
do
cle
nm
18
ins
state
synth
nit
##oh
##amp
##ilic
curr
result
cyc
##ft
ni
##viron
dem
second
influ
co2
##ges
organ
diam
oxy
previous
volume
coating
interaction
ext
h2
##min
tes
mul
##ants
performed
##ages
##ission
environ
##earch
films
tak
research
maximum
magn
separ
##ive
if
##ump
prec
##ind
##ross
absor
corre
chang
fre
##omp
showed
kn
cent
gl
##ynamic
efficiency
scal
fluid
##sible
comm
react
oxygen
dr
amount
compon
occur
##ade
sug
mm
predic
content
ii
studies
bl
##anol
med
##den
describ
interfac
enh
determined
band
our
increases
24
estim
reduction
bu
##ger
approach
17
polymer
##other
environment
##me
presence
should
##its
extr
##ise
since
point
nat
power
199
coll
considered
experiments
uni
##alytic
##50
concentr
field
stress
diffu
##ns
##ational
within
average
##av
##ock
capac
important
##ism
characteristic
substrate
pur
wall
new
##ically
##ules
##round
sing
br
species
prepared
applied
treatment
corresponding
type
evalu
##osph
strong
##ling
cells
##scop
expl
change
current
super
specific
ro
##ains
equation
presented
ser
step
test
effects
##20
##orph
##grad
av
##astic
##omet
systems
rem
synthes
##ately
proble
free
dimension
those
##ible
less
40
##ep
##olution
aff
dom
complex
##ath
radi
##sed
respon
sch
long
##ful
thickness
fraction
ang
ed
nor
frequ
tur
would
zn
##ice
##work
##cl
##ason
coefficient
various
##ets
pd
spectra
activ
models
##oci
##ulation
groups
##nm
gre
bas
stand
approxim
##ines
depend
linear
sour
##ired
##ire
##onstr
without
sem
emp
21
neg
proposed
##ark
##sequ
ge
length
22
decrease
##els
##roduc
ml
oxidation
##iod
##atively
nanop
##ually
single
##apor
exc
adsorb
der
resist
iden
pt
compos
tio2
temperatures
measurements
##ced
##ake
cost
##ins
ec
peaks
##ulf
see
ach
##oss
stre
eth
bel
methods
rele
numer
period
##ification
multi
##ences
##ug
difference
oil
catalysts
prof
sever
exhib
##ute
cross
direction
##ode
paper
achie
##ty
organic
conv
##eed
ke
##etic
prob
fo
transi
##ributed
concentrations
studied
investigated
##tinu
inv
express
composition
##artic
##ison
mixture
prote
diameter
techni
phen
##sp
flux
23
displ
direct
28
##ces
carried
related
net
near
crystall
##get
correl
il
stability
seen
inst
##aw
like
lit
reduced
##of
star
good
light
larger
diffusion
boundary
emission
nanopartic
##red
influence
na
several
##rix
##tern
end
ions
strength
##co
##ink
val
reach
simp
significantly
behavior
##ained
shap
degrad
patter
analyz
##med
matrix
60
##ral
yield
compound
capacity
diss
##br
demonstr
need
four
along
much
##osity
scale
induc
##lor
##pa
##ided
examp
silic
formed
removal
disper
##rogen
sugges
clear
factor
##ector
##lic
here
described
even
##ertain
solutions
comparison
inte
cool
containing
##uration
##ects
caus
developed
continu
##reg
constr
quan
solv
mes
any
##itation
changes
local
##ator
appear
##ning
sites
represent
assum
had
possible
##o4
before
effective
group
products
resistance
refer
force
improve
interface
product
parameter
ul
ann
##12
contact
resid
times
defined
##reated
structures
##cept
reactor
imm
##zym
tub
relative
minim
##ina
allow
##hyd
##inetic
##ier
molecules
loss
29
ele
processes
##ological
absorption
fuel
element
##ily
oh
##2o3
graph
##pper
top
ax
waste
fib
active
around
standard
many
transp
##umption
##ality
part
therm
poly
27
kinetic
frequency
added
photoc
intensity
sti
##ude
alth
associ
nanoparticles
although
##ten
irr
##old
weight
bin
fer
26
35
##up
conversion
00
##put
##ilib
decreased
molecular
accur
electrode
oxide
dynamic
mechanism
adv
deposition
introduc
phys
rad
##ables
##to
detail
identif
feed
##tice
##ably
equilib
resulting
colum
cn
dop
charge
strain
pure
position
wid
degradation
##olved
including
transition
##oid
enzym
##till
##char
angle
known
morph
pore
##ances
numerical
##ml
dro
##line
##hip
sum
example
##ult
simulation
produced
better
prot
##ner
sw
atoms
source
hand
complet
den
surfaces
discus
##rd
confir
problem
sulf
catalytic
##eth
##itive
31
fac
support
##ady
mn
bar
alg
turb
##ule
side
cases
perme
characteristics
##inal
suc
##anced
err
network
natural
##ogr
##ov
##water
thin
##rium
moreover
##orption
nitrogen
32
irradi
depos
equations
##ends
stor
33
terms
orig
ret
##ching
sal
visc
normal
ful
particular
deg
##loy
speed
dev
##he
##ritical
being
reason
proced
contr
chann
information
fit
slight
smaller
ir
avail
separation
components
##ially
##ards
rates
##scopy
conductivity
transport
##etric
development
bub
##rical
membranes
auth
equilibrium
reactions
made
##yr
##och
applications
##ogene
tar
tri
ga
del
##ores
mainly
##ication
wave
nh
schem
medium
loading
relatively
general
response
soil
ce
cd
progr
associated
##ord
relations
layers
cir
below
##ateg
##des
##ax
photocat
37
via
agg
follows
80
employ
est
among
##vers
##o3
plas
ray
real
hel
reve
buil
ben
##ished
beam
decreases
stable
composite
##less
##hed
biom
indicates
##ucle
##ived
dry
exch
environmental
required
tow
45
34
sci
##inc
modified
stage
down
diffr
##obic
unit
application
vac
impact
##struct
bul
allo
room
path
shif
eng
mode
heating
refl
##cs
##oph
consist
##mg
36
coun
hom
compounds
attributed
shear
functional
expected
crystal
##most
eas
##queous
literat
##na
bon
aqueous
las
unc
geomet
uniform
alk
precip
##abil
term
##ev
hy
acet
##×10
##ian
still
##por
##active
again
##rum
##eration
component
##ott
spectro
off
##bility
mechanical
sensi
##ses
continuous
anti
subs
indicating
elements
300
uv
util
##erc
factors
##elect
pb
ep
xrd
protein
conclu
prom
nucle
hydrox
spectrum
##oth
does
volt
##rate
recover
points
##ank
##ject
##−2
wind
##ision
phosph
shape
bulk
ear
approximately
hydroph
##upl
column
prim
integr
literature
hence
hum
synthesis
authors
##more
tests
distance
lat
act
kg
curves
##ler
##ening
relationship
##pm
generated
rot
bed
furthermore
conducted
taken
stream
##ogen
indicated
##ew
structural
bond
highest
steel
year
agre
solvent
measurement
500
lab
available
back
cover
##ended
##aled
mixed
##ven
compress
##ged
sat
adj
90
pul
cf
means
critical
curve
plate
gel
intern
##11
##ustri
##sequently
##ons
##cent
provide
crack
##ymm
##pped
##ising
dri
##wh
##bi
chlor
##isted
overall
fix
estimated
enhance
coupl
##ields
dy
lif
##ograph
glass
feat
alum
summ
highly
efficient
pv
variation
##itude
config
ethanol
nano
whereas
physical
finally
calc
industri
technique
##assi
positive
negative
decomp
china
tube
o2
supported
99
laser
maj
dropl
procedure
##lysis
##hes
hol
##ectivity
filter
close
success
series
fab
##omes
nec
morphology
##ero
magnetic
major
wor
##μm
correlation
##xt
induced
treated
##ensor
##ij
##tions
m2
##amin
another
achieved
determine
bacter
images
bro
specim
400
powder
role
selected
conn
observ
illu
run
##bal
illustr
space
##ibration
dimensional
depth
##izing
porous
bre
cooling
analyzed
rough
##lust
levels
##rier
heter
##pec
gu
cycle
deposited
caused
fabric
variables
gran
abs
##onom
plane
almost
hard
bott
##ulated
##ogeneous
valid
comput
##acted
pc
diffraction
weak
typical
sn
##ks
38
##aling
##stand
amp
engine
error
reference
inhib
enhanced
partial
limit
##aced
quality
inj
##ists
electric
##ylene
prac
interactions
sit
##rient
technology
wet
irradiation
improved
final
foc
##omen
greater
##ga
05
70
assess
μm
reduce
plasma
common
##ither
vi
##acy
rh
##isms
##rosion
slightly
##ised
adsorbed
core
##ayer
height
viscosity
generation
clust
figs
recor
##aneous
##arm
##izes
degree
wt
polar
equal
##ored
##lyc
zno
followed
cm−1
##vity
strateg
evapor
provided
operation
phenomen
situ
dam
site
mel
vapor
##chemical
lattice
##ices
48
them
differences
short
rap
turbul
center
displac
drop
biomass
##verse
##fe
##ather
##cp
n2
demonstrated
##orith
cs
mom
algorith
zone
ms
3d
employed
simulations
great
gra
coatings
fixed
release
types
198
agreement
assumed
##orts
ze
consumption
target
##man
phases
##icients
necess
contribution
##atch
coefficients
focus
##pping
operating
##art
espec
##cm−1
optical
channel
way
##iver
nanoc
41
especially
lip
evaluated
photo
clearly
considering
leads
tra
##bed
##resh
##cence
##ining
01
zero
##iss
gap
discussed
##tives
generally
additional
sequ
might
exam
maintain
optimal
states
susp
##30
rapid
##lished
plot
##rete
##rif
radiation
39
pattern
extraction
previously
##inate
##ok
link
atm
mark
2015
##iting
convention
2016
soft
dischar
inlet
mak
incor
voltage
fract
stirr
synthesized
best
domain
limited
derived
75
bio
ps
directly
evid
econom
##tis
tested
sil
iii
anne
##uter
##onal
program
expression
##ple
theore
storage
##ots
aggreg
consistent
coord
interes
##erv
##inity
devi
frame
cyl
rang
dependent
##fact
##pr
2017
##ety
binding
few
grid
index
internal
bal
inside
000
controlled
pan
functions
cul
incorpor
2014
42
respect
##ward
##arb
plant
##entioned
supplement
##view
must
1−
##atory
##ior
evolution
##ope
aut
quantit
gradi
electrochemical
obvious
building
##aining
electroly
occurs
uncertain
bottom
2013
##anning
construc
indicate
either
represents
add
##isting
hal
flame
##ering
areas
ground
sod
advant
##wt
did
require
conventional
mixing
##ta
scheme
account
##owled
optimization
simple
##cn
enzyme
##iles
pack
selectivity
altern
substrates
regions
##brid
dried
atmosph
##fs
2018
##omer
dispersion
1h
grad
understand
##itable
##onic
patterns
##22
mill
orient
chain
combus
2010
chrom
minimum
##bs
domin
gluc
diffic
image
block
suff
##lying
##ques
silica
fund
industrial
glyc
alloy
base
copper
isother
break
2012
h2o
slow
##40
##olds
##gest
recorded
fail
activation
produce
input
##omb
transm
appar
ru
cp
##ending
##ues
leading
estab
profile
glo
##atis
ve
##epend
##pol
sio2
cond
independ
drug
decomposition
dou
##ortion
certain
##60
contrast
##ensive
2011
expressed
al2o3
eqs
##ivid
##land
dm
##ival
detected
combustion
##riction
spr
substit
iron
later
radical
usually
##int
hor
##oxide
ta
bubble
nature
techniques
##aps
xps
individ
methanol
43
mesh
##ols
extern
mw
mac
pip
rand
accel
mar
##kn
ultr
##li
##ify
##und
problems
var
becomes
residual
green
coated
vary
pri
corrosion
steady
exist
ability
accuracy
photocatalytic
collected
hybrid
moment
clean
##fully
percent
##tically
tun
##tt
##ulose
located
##ans
signal
equival
width
bur
calculation
ens
##allic
exchange
investigate
##taneous
commerc
obj
necessary
##way
##az
dil
aer
zeol
random
introduced
sodium
original
deriv
spectroscopy
condens
elastic
exhibited
##osure
resolution
##ings
calculations
ampl
neut
stabil
amm
##ayed
grain
##sm
vertical
tem
##21
##iding
impl
44
##ood
external
denot
theory
algorithm
life
coal
sust
##ires
doped
ris
##medi
la
##alled
confirmed
##ways
displacement
note
predicted
ratios
recovery
electrical
intermedi
hex
slu
##ologies
negl
##not
bene
recently
statis
science
until
suitable
##elling
onto
##16
##ometer
theoretical
##acts
ammon
solub
key
transform
##ounts
py
##ream
c3
identified
adop
steps
class
##encies
log
variable
zh
electronic
##tering
characterized
wastewater
cath
55
bod
plastic
tit
axis
towards
##use
primary
preparation
subst
squ
cannot
edge
##sions
2019
##anes
##ecting
47
##hz
individual
rest
invol
2009
basis
far
formul
visible
upon
behaviour
sensor
fa
shell
friction
##tle
reached
review
##tiz
profiles
##max
##ceed
ig
self
##da
asp
##mol
forces
vacu
##etry
cham
desorption
provides
atomic
##osen
sb
mentioned
broad
spher
rather
wavel
tet
combined
monit
##organ
dra
wide
##go
##rich
##oring
##−3
##tures
pass
configuration
nanof
2h
investigation
smo
supplementary
electrons
fluores
detailed
##iter
prior
fav
deformation
excell
53
##odynamic
resulted
##bers
graphene
combination
benef
ide
metals
##fc
scatter
suggested
against
discharge
##ost
gi
##ursor
accum
##ethyl
precursor
##pc
buff
least
pers
she
noted
cho
ra
vacuum
chem
complete
150
molar
gradient
symm
finite
##ibility
implement
spa
2000
lik
recent
trend
vibration
full
nps
emissions
easily
shar
days
ent
46
precipitation
solar
reducing
alumin
bonds
cer
excellent
pen
2008
cut
damage
##tration
dissolved
##odes
##pri
##ibr
##stream
##uts
flo
##icial
##ern
chosen
shift
##owledge
vector
widely
pores
95
years
pump
##iew
surfact
molecule
instr
upper
##ware
miner
scanning
modul
##esis
−1
interest
stret
porosity
law
51
features
pop
##2−
appropri
600
1000
sufficient
depends
rich
111
s1
day
##ram
national
pp
2d
hydrophobic
regim
processing
##wise
##ensities
spatial
five
excess
sustain
proportion
cycles
affected
##aged
post
dig
achieve
02
horiz
evaluate
placed
kinetics
analytical
open
enc
circul
revealed
tc
figure
whole
div
suspension
satis
circ
view
crystalline
explained
##electric
hot
adjust
dye
ionic
##con
microstruct
removed
radius
make
ow
output
global
independent
simultaneous
pi
methyl
adhes
chamber
electrolyte
possi
dependence
demand
##ging
horizon
##sh
ram
sk
2007
multiple
ess
promot
repl
computational
scen
alkal
often
sizes
##inder
affect
##xic
commercial
65
gover
seg
summar
wavelength
financ
secondary
roughness
##edi
##la
##tor
##sive
prev
m3
microscop
c2
next
fast
grown
##td
##igned
pub
resour
bands
seem
interesting
basic
vs
##ators
van
motion
polymers
spin
assumption
axial
mechanisms
##enced
having
buffer
##by
flows
artic
##allel
##thal
cre
framework
nam
repe
##cal
##zz
univers
prefer
equivalent
emul
consequently
spac
##aff
geometry
become
permeability
scenari
fully
52
rece
methane
##ital
sr
criter
salt
double
manu
parallel
bes
facil
working
droplet
iss
corresponds
simulated
appropriate
balance
crystals
princ
osc
heated
ol
1n
immob
attr
strongly
difficult
fut
mixtures
##vant
amounts
sources
inner
injection
likely
amorph
magnitude
instrum
ts
project
##3o4
exposure
##uctu
##abol
fluctu
devices
##acl
though
nonline
concrete
activated
software
composites
##h2
completely
energies
contrib
device
49
princip
solubility
##∂x
annealing
##ino
##orous
cellulose
yields
silicon
media
benz
c1
##eric
stiff
weigh
2006
presents
##ton
slud
essential
purp
##ries
future
usa
homogeneous
lines
toxic
##mic
glucose
intr
##ca
##cr
pair
modification
##urated
immobil
failure
place
eu
##tes
specimens
microscopy
vers
finding
isol
include
cause
nmr
fiber
toget
##ones
together
##ics
##ancy
exhibit
##80
probability
##ae
examined
labor
nonlinear
cy
half
needed
culture
diag
oscill
now
sludge
analyses
##ders
##ustr
##roph
avoid
amorphous
##tered
decreasing
incub
able
dynamics
sensitivity
steam
approaches
hydroxyl
concept
property
designed
##ression
loop
etc
lowest
##oxy
engineering
defects
outlet
supply
##mentation
85
strategy
spectrom
across
##iling
54
phenomenon
assemb
120
##gs
anion
human
distributions
57
##ead
last
##coh
electrodes
2020
##aging
##amm
##isation
thir
##flow
flex
deviation
mid
67
land
##ustry
gradually
##ched
enti
industry
starch
wr
acids
modeling
##sequent
gives
help
bacteria
aim
foundation
ch4
numbers
smooth
ever
##otrop
expan
interfacial
2005
allows
batch
activities
absorb
opp
ln
tp
consum
regard
##istry
jet
extre
objective
##100
tension
evaporation
leach
bubb
uncertainty
constrain
##eness
poll
proteins
##inated
modes
prediction
coupled
##ental
250
body
cc
pyr
reyn
depending
called
oxides
##13
units
sto
estimate
precipit
financial
##osite
compe
hydrolysis
s2
longer
article
h2o2
fracture
detection
##be
jo
manufact
modulus
coupling
800
included
economic
besides
##ads
reynolds
led
suggests
gene
ap
##af
##ai
initi
improvement
cm2
r2
sulfur
heav
illustrated
alcoh
##dh
clos
##gin
zr
##ography
occurred
percentage
metallic
involved
ss
##ash
food
done
zeolite
semic
##jected
sand
remove
location
raman
intermediate
##oxyl
enhancement
calculate
56
horizontal
discre
##25
outer
monol
recyc
##ii
turbulent
##n4
poor
##romatic
comparing
third
entire
bor
pse
spl
manag
##ars
##ryst
correspond
atmosphere
110
established
ign
tensi
hr
take
ur
##tics
dispersed
consists
propag
nanos
find
##uble
expansion
##aster
varying
##aries
fluorescence
##ying
ambi
central
relation
##1−
stretching
subsequent
transformation
absence
titan
actual
##lier
ring
##ids
##ik
##utes
##atives
##oses
evaluation
cv
##enti
commun
chit
##urb
observation
instead
quite
brid
pet
useful
pseud
deliver
##osan
exchang
kept
##eless
carrier
##gration
cataly
##ave
mil
##atically
72
optimum
ct
washed
##so4
moist
##pre
counter
variations
draw
tensile
tank
sput
mach
appeared
03
reli
little
additionally
pyro
blu
tip
quantif
walls
accurate
except
constit
adopted
appears
lign
represented
slope
subsequently
phosphate
composed
pret
197
98
attach
tend
expon
barrier
2004
left
never
ambient
##ne
##h2o
taking
attention
methodology
##ectors
##15
square
give
sections
##atin
bonding
##bial
exhibits
chains
constants
regime
scattering
listed
alternative
every
thermodynamic
right
successfully
fields
fresh
##amine
occurr
acqu
nanocomp
requires
confirm
foam
assigned
predict
hydroc
rig
##acchar
cathode
transmission
turn
poss
promising
depic
distributed
effectively
metabol
raw
##m2
ger
practical
move
trad
latter
chitosan
##fied
fine
formulation
rise
extent
fron
##ense
relax
##onduc
probably
phenol
pollut
hydrophilic
doping
##uling
##ld
typically
knowledge
mc
color
particularly
reactive
similarly
##ident
refr
elim
chall
##tivation
always
cylinder
dt
neutral
adhesion
mesop
pressures
sed
asc
58
stiffness
amplitude
cas
biological
moisture
remains
seed
exposed
forms
arg
##uss
saturation
##ready
δt
droplets
amino
already
##uting
##dt
##tir
mb
centrif
flat
wang
rein
drying
mineral
63
2003
novel
fluor
cation
enough
##ze
costs
microscope
iter
64
read
specimen
orientation
##riers
laboratory
66
surfactant
er
##dehyd
dimensionless
purch
computed
details
gc
testing
importance
anode
plants
##orb
hydra
gold
hole
##tra
six
accept
maintained
##arding
changed
loaded
ftir
##oir
contains
heavy
##90
convection
agent
existing
clusters
origin
##ask
2p
nh3
semiconduc
hydrog
facilit
sorption
cb
approximation
reserv
##ether
##tile
cub
fibers
tb
understanding
management
cold
chloride
fitting
tiss
varied
university
reservoir
neglig
mos
ones
integration
##pe
observations
##idity
2002
##cep
rain
apparent
##ung
##tine
arr
separated
sensitive
dehyd
nearly
possess
static
optimized
##ef
forming
upt
relevant
occup
hem
##ened
nitr
##rang
connected
nucleation
##omm
##arch
penet
##ometric
sharp
##ections
hcl
probe
77
chromat
nar
dose
aromatic
cod
##ared
hydrocarb
04
dissolution
##ale
regen
parts
suggest
rol
001
exceed
hz
extract
adap
##eck
##erated
##ymer
##sk
charged
concluded
wear
##uk
tm
sedim
adding
##ipped
clim
##exp
ultra
nb
nick
##orting
tool
turbulence
dominant
##sa
distin
blue
lig
##loc
extracted
dc
simpl
melting
inhibit
aluminum
##erate
##sip
##ryl
generate
96
##l−1
desired
vess
determination
mpa
ft
##py
reag
##3k
reinfor
spherical
62
nodes
##ci
get
negligible
technologies
solids
nickel
namely
dna
infr
describe
suggesting
contents
once
bubbles
ideal
complexes
resources
saturated
##static
differential
cluster
##itud
ch3
thresh
ald
hyp
solvents
advantage
tor
microstructure
fractions
##acting
pipe
contamin
grant
##itting
gases
hu
nacl
##off
earlier
alloys
sequence
event
progress
advantages
bending
uptake
##app
characterization
##gence
versus
integrated
radial
eg
recomb
##arily
channels
defin
dissip
filtration
kin
causes
equipped
2a
rapidly
photocatalyst
makes
simultaneously
plates
centrifug
c3n4
reduces
##inary
##hic
statistical
conduction
ensure
##read
extended
risk
acetate
##ters
##df
##equ
97
pulse
boundaries
rob
adsorbent
fermentation
existence
station
termin
tradition
efflu
##ription
2001
purity
−0
graphite
summarized
59
takes
neverth
plots
68
nevertheless
polymerization
prevent
##ape
peg
spectrometer
cylind
scre
excitation
hardness
stirring
regarding
##urations
##di
ultrason
radicals
classi
exact
stri
stages
estimation
cos
interval
construction
naoh
oct
positions
ammonia
diagram
##estion
saf
##dehyde
diamond
vehic
utilized
##enz
synthetic
np
binary
##enting
special
seems
##riting
too
displayed
compare
starting
700
measuring
making
biof
detector
##∂t
##tition
1m
purpose
nc
iv
commonly
##ulic
jap
##ectiv
bioc
##ortex
##18
proton
purchased
lack
compression
##hem
nanot
##alth
abund
macro
acidic
ceo2
##14
sic
desp
hist
iner
allowed
ds
bran
matter
ht
govern
writing
whether
gal
sampling
compan
despite
##oly
##while
researchers
##zed
signals
conj
waves
divided
##tices
what
equip
remark
plotted
hf
vir
pf
substan
impur
don
applying
reson
semi
angles
vortex
##mit
grains
##vely
rod
zhang
narrow
absol
initially
experimentally
velocities
##io
instance
needs
dimensions
damp
az
elev
##itten
visual
front
##ochemical
bath
indeed
##tific
##uck
har
identical
ltd
soluble
surround
fabricated
sig
##bit
dos
released
##2s
tin
##kg
##lus
ppm
##70
silver
boiling
bacterial
spray
##activity
quantity
thermo
stirred
german
errors
##omers
showing
##ribed
frag
accumulation
inn
play
06
rou
aggl
bios
##organic
quant
no3
densities
pm
##cos
empir
pec
throughout
pyrolysis
fitted
microbial
responsible
##ulate
rgo
feature
##ste
##ises
remaining
ranging
coverage
owing
##oy
nitrate
##hing
dissoci
let
##eni
greatly
focused
consequ
##uit
contained
tn
formula
hydraulic
transferred
clay
enzymes
##tilled
alcohol
dark
feas
identify
threshold
##lution
stresses
comparable
cruc
just
ackn
absolute
polys
carboxyl
phenomena
mut
stack
selective
##inant
favor
copol
##ature
transient
meanwhile
capture
substantial
nh4
tg
inorganic
her
##cat
alumina
works
subjected
access
downstream
mal
##dle
1a
rock
distilled
address
##ighb
78
demonstrate
obviously
drag
##aer
repeated
neighb
##ements
##angular
equipment
mv
early
reaches
promo
frequencies
strains
fundam
japan
population
regular
##tization
deion
plan
spectral
rt
##ichi
capill
##atus
##odic
ligand
relationships
void
lateral
cult
##odegrad
ri
polarization
##×10−
averaged
hp
thereby
reproduc
##fa
traditional
ash
heterogeneous
mig
solved
fe3o4
xi
node
changing
tubes
mathem
decl
1s
river
unique
spread
toward
reactors
dp
assessment
head
3a
max
##lish
volati
##oxid
black
##lim
oxidized
duration
regression
directions
g−1
adjusted
window
inser
filled
##ouse
safety
faster
##rystall
##uction
electrostatic
##otropic
report
nut
dl
noise
powders
assuming
stra
##ams
##ni
hetero
10−
mobility
stronger
instrument
##h4
isolated
##23
chemicals
batter
concer
condensation
networks
electricity
dielectric
convergence
calcium
ns
fire
findings
xyl
health
enthal
da
cds
calibration
##mpa
87
stain
considerable
tan
ba
07
configurations
rotation
interpre
normalized
##fication
08
##entific
afm
start
nanostruct
code
validation
pseudo
mi
mem
lamin
distinct
grade
empirical
loads
##ips
partially
pathway
##mn
closed
decision
includes
strategies
driven
leaching
scenario
alkaline
61
holes
world
pell
##valent
straight
scan
relaxation
plat
predictions
nanotub
quad
elemental
quantitative
##50°c
1999
accomp
db
k2
mr
derivatives
spacing
76
soc
titanium
cavity
##elt
evidence
ceramic
fat
possibility
largest
covered
superior
reports
disloc
momentum
stoichi
glycer
incorporation
2b
tetra
cooled
redox
##c2
remained
dest
compositions
##±0
superc
proj
##set
deionized
fouling
scientific
74
##ro2
vessel
shaped
flood
sediment
crystallization
propagation
phosphor
market
graf
linked
##ious
groundwater
cfd
reasonable
tolu
nf
tex
ethyl
begin
cyclic
supports
selection
hour
lag
decay
qual
rever
hypoth
defect
remain
deep
fundamental
capillary
##link
conserv
zinc
##sivity
pretreat
retention
##back
autom
mos2
hydr
variety
influenced
earth
reflect
furn
specif
##nel
circular
swit
lignin
##ulph
entrop
purification
correlations
whose
4a
dioxide
aqu
##izer
categ
agents
innov
##dynamic
easy
impacts
nozz
description
##32
capacit
written
columns
##rous
stainless
providing
firstly
a1
reform
##co3
sheet
bri
generat
constructed
sustainable
##igen
gd
periodic
past
aspect
phy
infrared
introduction
##time
##temp
2θ
solve
entr
criteria
scr
evident
conjug
treatments
pin
mf
sputtering
locations
ho
hg
##come
responses
##ancies
suppl
sets
filtered
track
69
stored
##ectiveness
enrich
proportional
tissue
converted
##ights
##electron
88
thank
delivery
##ogenic
keep
##fall
l−1
aggregation
1998
##ws
requirements
##urn
climate
##idal
solute
mp
toluene
quantum
inhibition
##ln
determining
action
separate
constraints
extrem
analyze
chen
##aldehyde
s−1
mt
exists
ammonium
isotherm
chemistry
emerg
serv
collision
##ground
investigations
version
hollow
73
##artz
effectiveness
##agonal
resin
specifically
robust
expand
ranges
depicted
asymm
growing
∑i
passi
anaer
##thermal
1b
exclu
implies
definition
prol
producing
sd
perf
##ban
##ext
antib
lith
improving
##ppm
integral
online
experi
cations
pollutants
ultrasonic
lac
promote
##atical
inters
count
##000
##elf
effluent
bias
incident
scaff
concentrated
representative
interv
correlated
underg
##puts
##ek
implemented
ill
fluids
public
hydrodynamic
##thers
tail
lum
liu
gh
events
94
##amination
incorporated
sigma
cubic
##po
##ades
germany
##asi
84
crosslink
##ogn
##ories
ldh
satisf
month
templ
##ru
kj
aldrich
ball
became
180
imped
86
compressive
immobilized
anal
moving
constitu
merc
pu
acceleration
monitoring
##idence
quartz
irradiated
83
ly
isotherms
thi
middle
s3
contribute
observe
received
cnts
ethylene
absorbance
orth
implant
pn
others
humidity
##sen
monolayer
cracks
face
choice
sulfate
##ussi
##bly
correction
kind
ultim
yet
lang
ice
fed
mesoporous
quanti
intrins
coli
check
##abilities
oz
nd
arch
nom
md
##enew
explain
tre
cand
dyes
tf
white
##phot
pretreatment
mathematical
supporting
challeng
discrete
entropy
consideration
##ensively
capability
iso
##ames
nr
ace
pollution
##mi
exponential
dissipation
recogn
93
attemp
wood
mmol
melt
glycerol
sph
##ounted
background
92
losses
vit
##acent
##layer
swelling
cam
denotes
ka
ester
annual
consisting
##ocy
establish
##po4
ignition
restric
hydrogenation
proved
##olec
renew
##17
anaerobic
##oor
nanoflu
82
emulsion
utilization
ch2
lb
published
urban
nuclear
##son
quick
atmospheric
semiconductor
##pi
instit
bc
##vere
mostly
procedures
polysacchar
compr
operated
situation
##lands
cyt
##ographic
enthalpy
periods
bridge
hydroly
##eline
attached
crystallinity
24h
79
rainfall
sensors
planes
##ros
span
1997
shock
5a
3b
care
affects
##2o4
consequence
##appear
##sat
##wave
lc
##tz
zro2
dense
sulph
worth
sustainability
quantities
monomer
##log
recomm
who
##eller
limits
rs
anis
ye
continuously
tum
coordinate
bey
acetone
issues
criterion
rc
##ester
outs
89
vibr
a2
cnt
denoted
fluctuations
referred
##bo
fuels
reconstr
assembly
##ylation
symmetric
carbonate
09
##graph
pep
fabrication
furnace
##ometry
##ohyd
##agnetic
plays
big
##erge
accordingly
disappear
limiting
cylindrical
adjacent
71
##reh
pert
agric
lipid
tempor
embed
slip
root
viscous
hydrothermal
supplied
##cted
##adium
modelling
price
candid
residues
spectrophot
manufacturing
fall
assume
htt
aggregates
particip
sf
##cl2
substitution
highl
##lation
reveal
mole
##ka
polymeric
prep
arrang
created
immedi
toxicity
polic
microorgan
permeate
pris
beyond
##ergy
simulate
##fort
mis
uses
potentials
leak
fe2o3
##kin
shifted
pit
reveals
annealed
nozzle
gan
increment
symmetry
##ancing
plasm
damping
##ls
ci
intrinsic
##inite
eigen
sou
##urr
reactivity
hn
900
ded
##icit
rect
##atom
examples
pristine
rf
##arc
intensities
##ussian
sun
implementation
wel
opening
developing
carriers
cobal
##scopic
##ury
##mann
ascribed
hc
extremely
edges
involving
protection
bare
operational
nanofib
cour
vor
coo
1996
issue
scales
##ript
currently
involves
outside
##inates
hm
scenarios
zones
##mu
canc
bn
fold
beneficial
hydroxide
biodegrad
volumetric
replac
marked
##eres
vap
regul
cobalt
advanced
##nary
recombination
quen
belie
##enyl
opposite
correct
beginning
penetration
rb
x1
t1
context
##activation
aspects
trends
considerably
conclusion
identification
brief
cuo
##oxic
diameters
module
derivative
ic
nic
##ellow
1d
##24
reasons
monitored
##amide
fourier
3h
varies
agglom
favorable
gain
##hedral
respective
microwave
amine
minor
##anth
principle
analog
setting
##osing
##osis
collo
notice
##ception
predom
dx
surrounding
doi
nanoshe
##orter
chromatography
calcination
etching
contributions
nox
complic
pairs
mwcn
neutron
classical
##ley
##oreact
season
successful
##ky
belong
compreh
reverse
interfaces
permeation
driving
accord
qualit
norm
suppress
##ellular
specified
joint
##33
eds
computation
##tingu
kr
biofil
crucial
imaging
define
mgo
hs
rhe
benzene
uh
nuss
former
acetic
pani
pepti
##elled
##inement
fluxes
incubated
social
pva
numerous
rpm
option
reflection
regeneration
buck
##known
convective
fc
floc
multil
dual
##tc
longitud
unknown
##herent
ole
nusselt
resis
cement
buildings
encaps
immers
bear
solving
##ah
analyzer
nanocomposite
exchanger
##19
performances
affinity
box
doc
oven
resonance
residue
magne
homogen
##ee
deform
attain
##enton
modeled
##pend
lin
demonstrates
controller
matric
##flu
crude
enzymatic
##mmol
purified
blo
##sin
##regn
##king
stock
hyper
##aking
##cu
##ches
packed
disturb
injected
manner
rub
diluted
##tance
instant
sorb
##elastic
intervals
##iltration
tunnel
impregn
##x2
carry
nanoparticle
shapes
community
technical
##arse
hydrogel
ls
upstream
##irable
reagent
1016
os
impedance
dissociation
##δt
true
cum
youn
scaling
##hs
4b
valence
105
disp
##othermic
europ
cleaning
collection
longitudinal
##ayers
tables
skin
computer
migration
salts
detect
itself
pbs
##has
prepare
circuit
##rance
away
c0
##ao
##ifications
forward
domains
volumes
proceed
na2
4h
geometric
simplified
polyc
slur
renewable
whe
sectional
gaussian
limitations
cracking
laminar
matrices
pharm
##atibility
route
vacancies
##xi
kw
waters
harm
reliable
##rpm
gravity
##icular
adequ
slab
pathways
rigid
built
measures
editing
concern
undergo
lam
mor
1995
##vs
turbine
verified
accurately
##idine
efficiencies
discussion
##kj
##ielding
offer
calcined
illustrates
tetr
capacitance
trac
wire
incubation
absorbed
movement
subject
lea
overcome
occurrence
veget
km
variance
coordination
##nat
##era
t0
genes
transpar
transformed
org
controlling
port
recycling
##odies
capable
od
##opol
125
fem
196
##bt
stim
son
unli
training
infer
81
cycl
##encing
dominated
map
argon
##muir
##rown
##oustic
distingu
fam
##part
sens
influences
recovered
##imetric
rectangular
alone
##ano
30min
tendency
upd
displays
x2
olig
langmuir
illum
##∂y
flexible
##ogeneity
##ili
##osites
conceptual
beams
impurities
nanotubes
so4
produces
curv
tl
hold
dip
analysed
precursors
apparatus
accordance
##role
behaviors
attractive
unst
bone
##agen
##02
portion
ven
101
inoc
grate
##hex
young
extensive
conclusions
zir
##pd
##eta
degre
invest
##μl
nio
win
quasi
put
##iness
sphere
micell
##inyl
transmit
##wards
inverse
ell
##r2
##mb
countries
oriented
ordered
sheets
uk
mob
assay
vapour
severe
medi
2c
##assium
stationary
his
##air
distill
cit
magnet
appearance
##axial
implic
europe
instability
##fl
nu
kinds
differenti
summary
explicit
vehicle
dimethyl
induce
consisted
##oprop
##rim
surve
possibly
slowly
perfect
host
##ba
datab
assessed
interfer
epoxy
##ush
occurring
fe2
uncertainties
##atase
microorganisms
thermoc
shifts
personal
collap
potassium
electrocat
##rystalline
packing
dh
capt
ure
copolymer
toler
spon
transverse
k1
hyst
##nt
diffusivity
bol
contrary
nh2
lear
t2
ultras
compact
sea
tensor
δh
350
##mer
photoelectron
incomp
explored
operations
kα
##letion
##oming
cu2
##dy
primarily
drops
##ui
##f2
closely
##inescence
##lest
swe
refrig
##l2
vibrations
centre
##tation
difficul
##pendicular
lact
perpendicular
diver
pg
rej
μl
haz
assumptions
##usion
##culation
gase
##irect
delay
tga
rare
lithium
dilution
conductive
sufficiently
nanocomposites
##ishing
cm3
industries
lu
fatty
practice
td
immediately
reinforce
fe3
91
stabilized
pool
##omial
immun
supernat
##45
estimates
combining
row
substances
shorter
calibr
bioch
create
immersed
moderate
conservation
course
##g−1
simply
examine
##aily
reforming
alkyl
extensively
mcm
suspended
platin
##oration
##fr
interpol
min−1
linearly
benefits
sintering
cutting
##e−
trig
diffract
##plc
inver
daily
hydrocarbons
brom
replaced
verify
panel
competing
##ull
pic
5b
##ats
##uff
##isition
rp
##rob
tools
cancer
setup
deviations
hydrocarbon
extra
microm
ip
cm−2
s4
approximate
acquisition
##estim
gaseous
cellular
uniformly
characterize
phenyl
platform
blood
micros
stoichiometric
polyn
##yb
company
nanosheets
onset
temporal
##ounced
spectrophotometer
dies
indirect
arrangement
acoustic
facilitate
abundant
##stock
##cl3
pes
6a
##inations
runs
embedded
beads
##ynam
##iang
##tl
##izations
pron
representing
sides
fs
reliability
ship
##order
degrees
platinum
accompan
rib
concerning
morphologies
attrib
availability
fung
splitting
##enes
complexity
extreme
machine
##acellular
nt
excited
hrt
##where
text
stem
##alysis
exit
reaching
##anation
defl
transportation
zeolites
##esium
asymmetric
predominant
bil
cyclo
160
slurry
governing
otherwise
rank
##∑i
clar
thor
hexagonal
enter
emit
productivity
reflected
residence
kh
##co2
display
##s−1
gave
attack
label
r1
yang
connection
id
allowing
##n2
minimize
cav
ef
immobilization
segreg
assisted
feedstock
preferential
##ict
segment
c4
template
battery
oxidative
rm
constraint
consumed
partition
##ih
complicated
resistivity
extension
elong
distances
dft
alkali
d2
nanom
dram
yellow
exh
feasible
admin
pronounced
elevated
dsc
incl
intermediates
words
instruments
fro
hydrate
##rs
ng
ea
hd
lifetime
efforts
compens
array
provin
numerically
polynomial
−2
unstable
anim
ultrasound
efficiently
microp
sie
intense
##ulsion
trace
confirms
nominal
stated
modify
causing
so2
return
##ovsk
##used
kv
450
##odal
formal
adsorbents
search
pas
nanow
promoted
surfactants
irreg
1994
representation
wil
arc
weights
standards
##ymers
comprehensive
microal
requirement
##−t
fes
rotating
##gue
washing
negatively
##rose
zircon
ren
bearing
aa
quickly
mono
bonded
p1
##zing
transitions
##onate
##yrene
native
coordinates
##aust
sno2
question
explore
##rile
pvdf
pil
##rot
sized
hplc
algorithms
diffuse
rule
coarse
diesel
sba
catch
ster
capacities
tumor
disorder
##−x
hier
##itively
bus
sugar
environments
##tificial
##chlor
volatile
##2o5
educ
duc
curvature
ah
liquids
interests
bis
corn
dehydrogen
streams
milling
dislocation
hydrogels
##entation
chi
started
artificial
prelim
synerg
140
hierarch
interestingly
autoc
perturb
interlayer
##aceu
anatase
ether
neglected
starts
je
significance
##i2
fati
h2so4
##ulative
##va
viv
##acryl
buoy
##vd
lengths
sliding
piec
isothermal
preferred
##uation
##zo
##acet
bp
zeta
introducing
##iner
layered
apply
##ultural
boron
basin
shr
mapping
glycol
##vol
contamination
valve
##ethylene
contour
fatigue
vectors
p2
##zn
anions
eigenv
pent
digestion
describes
employing
##ani
biog
##inic
##eresis
##akes
sector
amyl
μg
insp
##bio
hydrolog
##tized
gam
sds
conveni
##35
wo3
exhaust
coag
koh
donor
heater
##roc
l2
larg
resource
hypothesis
actually
##cd
minerals
pal
south
else
runoff
eps
vacancy
eb
tends
gau
declare
largely
thermocou
readily
##oline
schematic
functionalized
government
anodic
acknowledge
emphas
prin
wetting
soot
13c
##aker
##kv
ped
dust
bim
service
addi
130
dd
acryl
fri
calibrated
##75
agricultural
notic
##olet
##ils
members
coales
##aceutical
micrograph
##alk
applicable
ultimate
enhancing
##ophilic
agn
stoch
zsm
yeast
##ered
drawn
##ilities
meaning
shan
indicator
##s2
majority
multilayer
multipl
##ini
variability
buckling
insul
cop
beh
##elet
acquired
ventil
immer
##wr
separately
serious
schemes
2021
##gas
alter
circulation
closer
displacements
supernatant
remarkable
isot
stochastic
precipitate
##rated
ast
##electro
hysteresis
##ada
ito
why
irre
potentially
microsph
bsa
discon
##43
epit
ternary
reversible
essentially
inputs
##orbed
coinc
##ume
centered
processed
##min−1
terminal
cationic
datas
220
##oreactor
##gst
perovsk
charges
dissol
obtaining
irregular
pig
nanor
##opes
##down
validated
phosphorus
expect
pcm
database
gasification
dur
conducting
glut
brown
herein
reinforcement
no2
##ymp
1993
fluctuation
##μg
biogas
vic
dosage
modifications
angular
granular
substituted
physic
vitro
competi
survey
##k2
underlying
atten
regarded
saving
b1
coke
##olysis
collapse
ca2
overl
supercritical
##tability
immersion
positively
installed
##mix
##urrent
emulsions
formulations
##onit
recommended
spheres
additives
randomly
##romagnetic
rings
##ynth
##las
preliminary
##ints
soils
aeros
exergy
additive
anch
b2
calculating
rd
unlike
innovation
figures
106
rejection
ten
resolved
toc
round
sus
photon
##enge
acceptable
##mark
append
##fo
thermally
cultures
##rification
deduc
1990
unt
blocks
plu
##ifer
wu
flask
##ki
gaas
helium
h3
zif
inh
rice
h2s
virt
##enol
hb
affecting
north
edx
1c
gels
inert
tab
noticed
scaffolds
co3o4
##01
sensing
spring
##ned
photocatalysts
104
valuable
draft
flowing
biochar
retained
3c
iod
##usc
tungst
hydroxy
catalysis
10min
##ucl
filling
minimal
stabilization
fluidized
attracted
dise
mer
nanostructures
meet
gradients
##urally
##zer
##vision
##b2
generalized
##etallic
blade
catalyzed
aggregate
reagents
happ
##ions
yu
operator
instantaneous
age
anhyd
cumulative
erosion
acting
lipase
explos
##ova
dw
circum
##isc
pellets
##31
biofilm
c6
ranged
##bitr
chromium
##−0
seism
magnesium
conclude
gro
##raz
ib
pem
##umin
##obacter
distillation
infinite
precipitates
drill
split
involve
##tm
##chang
bm
newton
guar
eight
briefly
phon
twice
learning
##ken
gib
wells
cycling
ozone
##×1
biot
##night
##xy
indicators
acknowled
pla
texture
##tivated
improves
purposes
classified
2m
##iline
##atite
discrep
plus
##rically
expressions
arbitr
sequential
denote
goal
decades
dend
pei
##ring
institute
policy
leakage
##uker
25°c
agglomeration
metabolic
transparent
fd
protoc
aug
hexane
lee
limitation
##su
cmc
terr
administ
1992
friend
##rought
cree
compart
introduce
overnight
desirable
localized
gelatin
##lers
biodies
mno2
chemis
002
mang
deposit
trib
reactant
df
alginate
spot
du
pharmaceutical
##kt
appendix
##aterials
indoor
blend
bd
destr
satisfact
##okes
lew
challenge
cz
contributed
meter
ks
fis
##hi
bruker
principal
sequences
vb
voltamm
planar
##alt
guid
dispersive
explo
rotational
rear
generating
untreated
##onation
##34
##kl
trim
seismic
mof
energe
passive
kim
##emble
##onitrile
giving
drift
biodiesel
international
5m
e−
##ichlor
cast
eventually
##ares
cao
house
digital
##rt
evaporator
peroxide
##ulos
arsen
adequate
systematic
##lar
discontinu
##rel
micelles
shim
urea
precision
clad
orders
ros
drain
bip
##xp
6b
similarity
regardless
lift
m1
##inding
nanorod
funding
substantially
recir
education
weighted
##chann
dmso
accompanied
centrifugation
elsewhere
cac
deactivation
smal
##ellulose
biocomp
icp
facility
∑j
lamp
mir
mitig
dn
moments
##itudes
orb
blank
junction
5mm
imposed
colloidal
##a2
european
removing
reactants
oscillation
##idaz
lub
sink
qe
flames
##changed
δp
centers
know
##ming
##rin
##ghai
drugs
cooper
##olecular
fec
province
##alc
##itect
nutri
sett
##ometh
smallest
rubber
inset
irrever
vivo
papers
coolant
granules
om
##otyp
wettability
cavitation
flexibility
geometrical
foss
refers
conceptualization
resultant
challenges
enhances
cultivation
mild
grafting
shrink
aging
benefit
sg
explanation
frequently
thorough
contaminants
shanghai
voc
sound
acidity
burning
segments
companies
##otoxic
molten
electrosp
bt
1200
##44
##gets
assembled
##hol
unchanged
diffractometer
##rof
##x1
crystallite
##zu
decline
bench
eis
iteration
persp
pollutant
chemically
##ugh
synergistic
regional
2π
oscillations
captured
nanofibers
pointed
accumulated
tungsten
nutrient
7a
orbit
ld
camera
performing
own
ki
normally
##osal
indices
morphological
depart
les
6h
##55
##bar
combinations
resistant
forec
vehicles
##ively
structured
cyclohex
hv
assist
behind
nanofluid
discover
dox
gamma
clin
aluminium
##ratic
fcc
pcr
manufactur
grav
fair
illustrate
microspheres
construct
quantify
covalent
ket
mobile
perovskite
condenser
ventilation
regimes
antic
geometries
charging
##tite
enables
##reci
investment
##tenance
fp
peop
##1−x
harves
architect
##acterial
inclusion
n2o
overp
ppy
p0
pdms
stokes
ways
mun
cg
##73
enab
maintenance
lewis
##gae
##load
##cepti
pall
gn
##iral
match
##fp
tripl
##mma
##anese
bh
##inge
speeds
infl
antibacterial
ministry
qualitative
imper
##enzene
ord
candidate
centrifuged
people
coup
##raft
298
##∫0
linking
##cing
barriers
underst
shal
https
##berg
che
uran
warm
build
monomers
refractive
feasibility
compute
deterior
yielding
conve
generator
antibio
fossil
late
##olar
##rav
##tors
apart
wake
substituting
##∑j
ellip
lap
physi
expensive
replic
feeding
suspensions
ei
##vities
##asks
##ignment
impurity
chloro
cleaned
classification
confined
degraded
mwcnts
isotropic
abundance
overla
##itic
seven
quantified
3000
reconstruction
discretization
tight
excessive
manif
lubric
friendly
thicknesses
f1
preser
satisfy
##tivities
targets
statistics
history
family
interact
##m−2
viability
perspective
1991
eigenvalu
##ocl
islands
pectin
interior
##point
rms
dmf
look
##uv
idea
fermi
believed
##after
slower
kl
exception
soci
segregation
550
##apol
##fol
occupied
pitch
excit
aerobic
##ata
optimize
guarant
##icate
ionization
pms
monot
denit
pellet
##×100
induction
4000
hydration
lp
polysaccharides
understood
ni2
##erates
categories
buoyancy
discuss
fluorescent
##tia
##uler
carboxylic
h1
2n
grafted
ligands
conformation
##othermal
##∂z
cathodic
ai
sv
##ortun
kore
##36
##99
eliminate
grinding
depletion
competitive
bars
manip
opportun
exponent
carbohyd
##zr
microchann
suscepti
crosslinking
plateau
aerodynamic
naf
##fers
cust
predicting
author
reflectance
neural
orbital
hardening
tang
5h
insight
##×2
δg
macroscopic
##rup
##ounting
h−1
acts
designs
##times
describing
quenching
capital
##saturated
freed
appreci
addressed
task
##imeter
##otropy
##atible
kern
carbonyl
xu
attachment
administration
hierarchical
reinforced
##2c
mercury
microalgae
s5
enable
##rophic
foil
tpd
accep
qds
hazard
cw
tolerance
fenton
technological
pati
acceler
kt
regulation
cro
5g
association
asymp
butanol
creep
subm
supervision
sym
##ograms
adsorbate
cov
103
disk
analyzing
floor
octa
entry
bf
binder
restricted
effort
coalescence
n1
afor
pix
fusion
impregnation
dilute
refinement
antim
interpolation
grids
city
mol−1
contributes
dimin
enriched
sac
hours
##hydroph
contin
gp
highligh
##phase
##ument
fish
ham
sense
ber
jump
illumination
f2
lib
india
drastic
##lich
realistic
accelerated
organization
oils
alcohols
keeping
scav
utilizing
parametric
bif
wc
comparisons
date
##anti
autocla
fault
##face
ils
microscopic
##ested
peptide
weaker
hemic
##junction
##ei
complement
ends
pda
experience
plac
comes
screening
kd
superf
projects
imping
prolif
photos
freedom
##isper
transl
##sibility
##arities
member
##position
90°
serum
bright
5min
mg2
superhydroph
user
advance
e2
install
radio
mort
replacement
encl
##42
##rite
##mw
vortices
methan
##agg
##orem
##0°c
pvp
kit
##h3
facilities
##mv
##ucid
1g
visualization
##len
bs
bit
evaluating
synch
rin
deposits
calor
##ocyan
pcl
cvd
forced
deal
tof
million
##m3
##h−1
planning
fluence
##adzu
named
inhibited
##oidal
maintaining
##gential
dehydration
butyl
offers
favour
rn
ui
economy
hit
intersti
pulp
##what
∂t
spent
phenolic
hi
weather
##h6
##ocation
fg
##rp
loops
noble
eco
##oud
prolong
rules
took
somewhat
interference
euler
collagen
##mol−1
anionic
mediated
lys
shimadzu
ans
##ementioned
burn
serve
corrected
interstitial
extrapol
trade
##pha
shallow
##c1
fuzz
aforementioned
das
##versity
acceptor
farm
sulfide
easier
##ecu
precise
tangential
unre
fan
adhesive
##raw
adaptive
colon
satisfactory
spreading
theoretically
##vier
realized
lost
determines
commercially
roof
freeze
pretreated
pw
rr
isomer
fragments
##ool
pulses
fertil
pie
gb
wastes
##ifier
jeol
radiative
uniformity
isoprop
propose
fibre
aq
enrichment
e1
asph
##mgl−1
solver
##ato
interpretation
##dr
exactly
pilot
##ematic
oste
adi
##hold
palladium
department
deflection
intercal
trigger
parent
business
workers
intensive
antioxid
expanded
fi
dramatically
polysaccharide
cry
agree
petrole
notably
##iler
reflects
aes
aw
quadratic
##unately
dlc
pmma
gibbs
##2n
detach
traff
intercon
lot
##eper
achieving
sealed
protons
##onium
branch
mh
60°c
nitride
hydrophobicity
colour
##cher
##cy
collector
500°c
simplic
uf
pumping
electrolysis
petroleum
elucid
##k−1
arbitrary
##isson
nad
ferment
bag
recognized
##ho
a0
stm
corpor
naturally
stations
compressor
ton
permit
deduced
hinder
metabolism
##van
nanowires
metall
transmittance
insol
peo
protective
##k1
0°
sap
acetyl
spots
memory
contaminated
vegetation
chlorine
batteries
applicability
monte
kar
dot
##cale
5°
##ously
##arith
4c
scaveng
polyp
accounted
##lab
kf
##gg
##fill
formulated
byp
perm
dislocations
statistically
##gins
trapped
mounted
##partic
phonon
ff
195
cu2o
vanadium
held
pss
fourth
inherent
naph
##66
0001
diagn
##apy
decomposed
dv
feedback
roughly
ecological
mhz
promoting
##ochrom
##ogram
asympto
modelled
sweep
tic
##umar
dead
drawback
travel
##osomes
##abatic
labeled
µm
o2−
simplicity
##ont
blends
heterojunction
d1
gratefully
∫0
##aken
##ras
encoun
loadings
fm
continuity
physics
carbons
kaol
1mm
photogen
thanks
micrographs
##p2
months
rg
##ella
##∂2
carlo
nanocryst
leg
rotor
##o6
##fluor
##orth
overlap
solidification
##tally
fluoride
##urization
cyan
r0
straw
logarith
##grade
vinyl
rev
##att
##98
anisotropy
carbide
approximated
##cool
forest
controls
disturbance
copolymers
k−1
rutile
confirming
ys
molyb
5ml
8a
##osystem
jcp
confidence
noting
curing
##odec
mot
spectrometry
inflow
summer
vicinity
4f
filam
traffic
fuzzy
cake
paths
##jectory
superficial
trajectory
korea
jiang
backb
1500
nanofluids
interconn
environmentally
##etrical
completed
zha
p3
usage
studying
manganese
scope
my
quantitatively
##ectives
##lux
aln
possesses
##ogel
pulsed
##elle
implying
tree
##erator
proliferation
##usting
apt
corner
##48
meshes
##advant
passiv
spontaneous
practices
conjugated
elimination
insuff
disadvant
recycled
moves
improvements
##igation
##uminescence
dehydrogenation
ith
survi
successive
##onds
photogenerated
exceeds
arrays
##bc
marine
apparently
til
##rates
##apeu
polished
safe
hydrochlor
comfort
carefully
genetic
##wood
demonstrating
##95
extend
bund
transc
##kh
harmonic
vul
##oids
##imetry
dipole
principles
5d
##iders
112
squares
ali
nanorods
wider
breaking
objectives
physicochemical
proven
accounts
perturbation
5000
hrtem
partly
cott
nafion
cad
recirculation
##steady
baseline
flue
##atest
passing
gaps
filler
adiabatic
gradual
vf
plug
mx
consecu
remarkably
sud
##urg
mim
continued
distinguish
filters
##hp
cohes
stacking
ecosystem
computing
anth
yi
yielded
exothermic
aquifer
gram
winter
108
evidenced
maps
tough
fly
hap
a3
galact
scaled
constitutive
satisfied
anisotropic
spe
##fi
##leigh
durability
##ara
promin
ablation
##dx
motions
bioreactor
##ji
##structure
400°c
12h
##hm
incidence
cladding
doub
casc
reacted
integrating
107
##cin
##sing
tissues
validate
##truct
cleav
triangular
unity
metric
insufficient
surpr
qi
oc
conform
unsteady
##opolymer
aligned
lake
polycrystalline
jcpds
diagonal
##tium
emulsi
fractal
rayleigh
##t2
enlar
implantation
sew
sulfuric
±0
##ody
recip
##jector
elasticity
##icro
terminated
pain
##otential
initiated
casting
102
##urface
##asting
cl−
coil
insulation
bi2
hno3
##elines
##rans
1100
ti3
brit
##faction
rising
monitor
37°c
airflow
##omal
##iration
implicit
volatil
##gent
dropped
blow
##65
kinematic
##hn
o3
protocol
##gap
upward
tpr
attained
30°c
cultured
annular
olef
monolith
sorbent
5c
6h2o
##osid
edta
generates
singular
##abor
##ilized
cotton
xylose
accepted
tris
hept
ker
scaffold
50°c
##oped
panels
eut
reflux
inserted
m−1
refriger
tt
precipitated
maximal
##ulosic
animal
orr
polyethylene
running
photocurrent
crystallites
slag
100°c
latent
##illus
##anned
poisson
fwh
coagulation
240
leaves
fractional
4d
initiation
secondly
scans
situations
challenging
huang
##phenyl
agen
##molec
lies
mit
extracts
##xx
##emic
m−2
co3
benchmark
differentiation
210
interpreted
dg
7b
oh−
select
wafer
withd
750
##rip
superhydrophobic
popular
drainage
coordinated
newly
difficulty
voids
subtr
noticeable
elevation
quantification
##scs
##ionic
gate
diverse
accounting
##uated
wing
##rog
##cil
1k
adjusting
hydrophilicity
catchment
##nb
##kev
compartment
silicate
##otation
faces
##38
nl
practically
insoluble
flash
orthog
##standing
128
lm
##sr
kpa
heights
carrying
amide
##pph
##e2
zhao
induces
clinical
evac
transduc
##vp
chines
homo
gum
depicts
cylinders
acknowledged
##alysts
thf
ptfe
intra
arsenic
dichlor
agar
concerns
universal
beta
jus
island
nutrients
elongation
##41
chinese
##600
cleavage
war
##onite
comparative
recept
kcl
matching
rhb
kb
mention
##m−3
bigger
##vis
##vo4
share
pay
##zen
##bra
sp2
1989
qt
magnetization
dynam
##×10−3
vo
##28
exchangers
##through
sched
2g
package
##titude
propane
broken
sintered
destruction
microc
##dp
##dc
##enium
##ana
##ert
##thern
pyridine
switching
##ride
##opl
thoroughly
withdraw
syr
unfort
trap
cdcl3
vibrational
##unc
##ranged
cla
libr
mas
symb
sugars
neighboring
##ophene
syngas
importantly
##otoxicity
roll
highlighted
wound
##fe2o4
corresponded
uranium
strip
disin
ty
visco
mj
directed
##ulations
##ch2
##d2
come
##achi
oxidizing
consistency
pipeline
300°c
living
##ops
650
hydrological
pat
nn
convenient
choose
mah
outputs
acetonitrile
iterative
rech
trapping
microstructures
nz
properly
##occ
##96
##otal
topography
semiconductors
##try
presc
zn2
1ml
##0000
80°c
evaporated
salinity
eos
attenuation
backbone
ceria
##hydro
unfortunately
validity
competition
perc
irreversible
##ifies
dataset
nir
surprising
humid
physically
compares
caps
##house
zns
filtr
##37
flight
##cm2
algae
particulate
hall
∂2
iterations
##a1
600°c
aid
increasingly
wheat
##acc
rheological
incorporating
electroph
reasonably
acad
pdf
diversity
cone
therapeu
kernel
pipes
inhom
endothermic
freund
targeted
compressed
inhibitor
systematically
enanti
v2
##sted
treating
breakthrough
attempt
agglomer
fwhm
coul
bind
electrolytes
foot
aux
inertia
consecutive
tracking
##gl
wi
communities
emitted
sonication
##ey
park
classes
##ulum
flexural
replace
aeration
seaw
probes
governed
##ez
predictive
dimer
rinsed
recombinant
##bl
s6
##oxidation
neither
rolling
##km
diffus
nab
invent
reflections
council
connections
promotes
lca
http
theorem
nuclei
vr
tay
strict
wavelengths
x0
currents
epitaxial
##molecular
1988
kp
leaving
##47
thermog
downward
##ems
bac
raised
envelop
##ilization
##cm3
2−
gs
ultraf
paste
ensemble
##lines
chel
##rupt
##ulture
tracer
week
005
computations
modules
container
fn
##uli
xylan
prominent
ny
##stac
bomb
oer
intracellular
15min
rational
l1
caco3
##olytic
neur
inflamm
reviewed
mann
refined
tubular
gy
macrom
perkin
nanomaterials
considers
mofs
arri
patch
influent
infiltration
thicker
empty
doses
##osa
##bor
##icip
encapsulated
powerful
coex
##ko
bodies
shed
manufacturer
thought
obstac
sudden
##ori
lignoc
researches
passed
##ford
##aa
tax
aims
distortion
##eks
disposal
nanocrystals
operate
thr
web
##26
unsaturated
##isely
##oted
##rac
resins
heterogeneity
##ediation
##eq
lipids
eh
hydride
thermograv
satell
orange
suppressed
derive
cavities
##ilent
##tified
2h2o
rhod
##oti
amin
organisms
##tility
municip
twin
##icrobial
##apac
kc
independently
soy
hind
paa
joints
bounded
convert
outd
extin
underestim
alb
c5
creating
agilent
chemisorption
retard
##ifying
blocking
turned
aerosol
helpful
neighbor
effic
reservoirs
methylene
autoclave
basically
indication
modal
snow
##bm
steels
##p1
san
arab
nac
freundlich
##mod
##r1
shale
multip
spaces
inversion
rout
hab
ramp
sulphur
adapted
subsc
afterwards
discrepancy
indentation
breakdown
glob
drilling
##erged
agitation
physiological
played
photol
creation
hen
ws
agcl
##ulating
virtual
microb
depths
demands
sha
aust
prove
stic
##ett
boltz
##97
healing
viable
##uth
antimicrobial
##ote
waals
evol
##cf
ghg
spi
duct
beds
##oxane
##ynthesis
breakage
∑k
dic
triang
destro
intermolecular
antioxidant
dopant
checked
funded
##osilic
##acl2
corro
bic
object
stagn
dodec
compatibility
mice
beij
gall
tap
sharply
emb
sometimes
extinction
weakly
##l3
##olid
confinement
mism
holds
crystallographic
chloroform
##iring
category
coast
continuum
##kw
##ria
aun
crus
reconstruc
gpa
lt
inferred
riser
impeller
##fel
##ieties
influencing
watershed
strati
##pro
potenti
##orm
##case
dens
ak
micropor
swir
2p3
gauge
##forward
cis
earthqu
lev
designing
equals
scattered
seeds
##86
biocompatibility
##85
##days
##uel
stoichiometry
no3−
flotation
proof
gm
##cepts
thermost
cooh
adatom
##ilane
200°c
fragment
fairly
##iation
oxidant
agrees
kbr
127
##zyme
lean
titania
rechar
accelerate
##46
determin
damaged
stripping
##anthan
1987
anod
helps
bank
mps
##mitted
overestim
mwcnt
bring
ee
##hatic
considerations
undes
distrib
fractures
fins
##cular
##stral
hitachi
torque
##well
robustness
taylor
##27
##idden
uns
asphalt
denitrification
sucrose
##gn
mfc
##ira
115
viscoelastic
##ife
repeat
topology
tag
sampled
slopes
ignored
energetic
##rc
##200
##quin
##otrophic
eliminated
##ectic
steep
scalar
say
suction
merck
tower
##aceous
gw
contacts
precisely
##m−1
usual
##ormal
entering
rods
arise
integrity
holder
nearest
boltzmann
austral
##xs
concerned
codes
explosion
fibres
ferro
options
ctab
mismatch
##ethanol
10−3
##mhz
consuming
orbitals
absorber
utility
averaging
broth
medical
v1
repulsion
alternatives
routes
fulf
broadening
dots
difficulties
covering
vc
aged
skelet
architecture
locally
road
mesopores
cellul
##unctional
hardly
##5nm
orthogonal
##×10−4
mineralization
flooding
sectors
assistance
saline
deb
electrocatalytic
synthesize
ao
##−δ
estimating
##opt
drive
biodegradable
micron
plume
##dom
##otype
deeper
##auer
xn
170
abras
##ht
##iax
##versely
##adec
sciences
qualitatively
aimed
windows
recrystall
g2
orientations
refs
esters
unf
##h5
##inery
beijing
##aked
arising
##ovol
profit
adher
hl
decon
bay
sam
accessible
u0
##qds
orif
wash
slug
nodal
seawater
styrene
tuning
##eding
quater
∼1
avo
predicts
hill
existed
invari
examination
auto
capabilities
bimetallic
triple
begins
bilayer
thermocouple
manusc
sewage
encapsulation
##∂xj
##→∞
molybden
toughness
metast
##msel
efficacy
tetrahedral
5wt
subj
##light
intensi
firm
zhu
##itol
biodegradation
focusing
record
vp
overlapping
strengths
##ysical
polarity
##fection
functionalization
discretized
rupt
photocatalysis
##anu
pz
azo
rises
plasmid
outstanding
##ruption
services
##rn
muc
respond
##ands
##izers
facile
predominantly
magnification
diagrams
presum
basal
rl
shells
135
vh
ko
##ignific
equivalence
##astruct
disappeared
mining
combust
insertion
avoided
formaldehyde
alip
bandgap
investigating
mart
##mixed
sonic
##imil
transported
lamell
degrade
arranged
manuscript
4°c
2s
poison
lic
conflic
shut
inequ
stake
##ogenesis
cloud
amplitudes
shrinkage
outdoor
∂x
vig
mud
penal
##vo
δx
##ommod
##head
decol
dut
##wall
baff
isolation
v0
100ml
newtonian
propylene
infrastruct
ductility
assumes
constrained
##omethane
##77
roles
rna
##bb
preven
crop
extracellular
##ignificant
zhou
lowering
adjustment
secre
reacting
##ember
accommod
none
implanted
fisher
ww
10mm
sediments
##lined
pac
##urbed
2k
constituents
1986
fill
substance
1980
separator
projection
till
##onas
fabricate
2mm
asymptotic
##yi
entrance
settling
moo3
oxal
ut
analogous
concentrate
cacl2
condensed
greenhouse
inclined
##−c
promoter
benton
##uj
corr
peptides
schol
esc
##eg
braz
##49
bromide
torsion
45°
vas
##ortions
spinel
##ogels
bpa
gained
maxima
microchannel
jack
steric
piezo
##zh
encour
xj
alpha
nanotube
##opy
conversions
clustering
polyd
united
##scale
s0
benzo
δs
##t1
gasoline
incompress
inhibitors
##∂r
hep
insignificant
moieties
ore
curation
magnetron
##ski
##olecules
attraction
replacing
##f1
pvc
k0
##wich
40°c
20min
handling
##ples
landfill
macrop
convex
##vent
cus
mcc
eddy
emerging
hund
##ker
##acrylate
domes
zirconia
##3−
##v2
explains
##ogenous
explicitly
incomplet
status
etched
attempts
modern
document
##67
##obut
##osacchar
greatest
photovol
uo2
##hard
alignment
atr
e0
##rane
therapeutic
##±1
oce
cities
deformed
##ch3
perip
nitrite
histor
##umber
pad
reuse
##iliary
##ham
280
summarizes
fw
titration
trial
##comes
##lin
municipal
disordered
stretch
graphitic
accelerating
brazil
##ette
##ritic
regulated
cere
##dm
mk
dashed
t−
screen
discussions
biomed
hydrated
ingr
printing
actu
##opic
individuals
tom
actions
freezing
##day
luminescence
ij
pile
##ura
ves
##ulus
prices
ot
roots
installation
disease
synchron
references
##nn
altered
##mev
800°c
necessarily
dependency
jets
vt
hemicellulose
ultimately
hundred
##ogens
molybdenum
list
##luor
adverse
communication
airc
smart
contract
aliphatic
thermogravimetric
##cho
streamflow
curved
##ombic
##b1
u1
refrigerant
conditioning
hypothes
interacting
scratch
##illed
irrigation
##29
huge
spectroscopic
prolonged
agnps
imag
thrust
##rial
offset
composting
bridges
whil
kg−1
##ror
meso
organized
tec
vessels
overpotential
##oni
chitin
comprised
shad
recharge
stabilize
lh
proxim
weeks
textile
bg
contributing
ncs
comparatively
##ishes
epr
moi
8b
##violet
median
train
##dd
arrow
whilst
##bp
compet
b3
mini
anhydrous
##ylated
exceeded
ysz
i2
##vm
ligh
subsurface
nine
##mium
##→0
ultraviolet
##nf
welding
propanol
insights
109
electromagnetic
prescribed
##rf
reus
xe
concepts
##ticity
arises
convers
totally
goes
nanoscale
bj
##∂u
∼0
astm
fluidization
straightforward
##orthy
tk
gray
lens
thermocouples
##the
grateful
nitric
exhibiting
##inking
psd
experienced
##5°c
vm
quin
old
frictional
entrain
stands
photodegrad
persist
floating
repair
organics
quadr
##bilities
supposed
sputtered
##itz
tian
laccase
arm
biochemical
inclination
filament
dissolving
percentages
##1s
updated
lactic
##rant
neat
##ea
284
flav
sandwich
##osities
motor
thermod
policies
##sl
nas
##inger
##hal
algal
mechanics
##apacit
##flon
polyst
octahedral
combine
inhibitory
tmp
passage
brittle
emitting
resol
satellite
##enite
chf
jud
chip
##lies
spite
##versi
alge
proceeds
country
perman
innovative
d0
pieces
projected
vital
thereafter
##geting
imidaz
##−12
defining
unb
streamwise
auxiliary
##motic
passes
cores
dispersions
magnetite
store
vigorous
##omyc
conservative
##300
microstructural
fid
mpc
um
##can
##tity
prehe
contaminant
aircraft
##oto
10−4
suppression
##500
foams
hull
firms
9a
##iers
accomplished
##iw
grows
risks
delivered
moved
paraff
navier
khz
minimizing
disturbances
##osel
collisions
circle
agglomerates
restr
moiety
ordinary
α2
americ
preferentially
teflon
crosslinked
radii
simulating
##lat
1985
fewer
burner
monolayers
picture
5μm
resistances
cable
##imide
##tious
##assed
facets
inventory
distinguished
couple
##phosph
##han
candidates
420
domestic
20°c
miss
micropores
notew
institution
leaf
die
minimization
##lem
excluded
drastically
targeting
algebra
##aching
continues
accident
needle
##urity
##estern
bentonite
##91
laws
intact
indicative
##87
patients
pill
wild
vg
##ulsive
##print
undert
voltammetry
##mitt
antibiotics
waven
preparing
##tex
##ymmetric
weld
##yer
##ender
2e
##kf
ceramics
facilitates
pedot
bore
##illin
encountered
jun
photodegradation
##no
##eor
rays
incompressible
faul
polystyrene
believe
coming
continue
wise
joh
320
##ift
##inating
elu
ni3
photoluminescence
trunc
virus
50ml
debr
##gu
preventing
destroy
atp
identifying
ku
noteworthy
scholars
trajector
phil
##rangian
focuses
trajectories
ey
nw
##andtl
inoculum
photons
manufactured
metabolites
equally
##hole
weighed
complexation
recommend
brought
kev
contours
conversely
homogeneity
brine
alternatively
supplemented
##urized
multif
debris
favored
therapy
flocculation
10ml
pull
vide
citrate
360
cha
lagrangian
δe
photovolta
incomplete
g1
satisfies
yb
cnf
lie
##rapped
316
##gal
gf
137
kwh
mortar
##jk
aps
pick
lor
operators
ordering
##lc
programming
##u2
positioned
frames
guarantee
ocean
##olium
anova
lf
society
milk
aquatic
##yll
gets
comprom
office
monthly
##obi
exec
counting
guide
galvan
dang
axes
assign
esterification
##arbon
elast
##orated
west
hydrolys
##∑k
##enius
imply
shoulder
vd
microporous
corporation
matched
m˙
assays
indium
promotion
antibody
reproducibility
elementary
sulphate
tu
vial
biomedical
##wide
tetragonal
fits
saw
##saturation
conduct
tanks
symmetrical
teos
##ney
u2
##rick
advantageous
aliqu
orifice
bombard
deterministic
##hr
recycle
##itational
acrylic
zirconium
##56
gt
mag
##ulfate
prandtl
bivo4
liquor
conjugate
amines
lapl
protect
cascade
retur
thermodynam
indent
fore
##range
syringe
unless
pam
compatible
homogenous
ups
fb
ferrite
voltages
aggregated
5nm
##h1
engines
chromatograph
consumers
hous
mask
##pb
claim
##88
fungal
intercept
optimizing
spatially
ferric
arrh
117
logarithmic
ble
##orization
48h
impregnated
manure
##inning
superhe
piv
##etal
piezoelectric
facilitated
##ona
going
##awa
pk
va
crucible
##elial
modulation
holding
feo
y2
agriculture
##omonas
##oms
glu
enterpr
##ya
hazardous
vertically
q2
originated
master
storm
ae
##sn
designated
users
##istered
h0
triplicate
iodine
screw
east
biocat
stat
x3
perfectly
try
pca
##ita
plating
cytotoxicity
deformations
mu
originally
##lable
w1
c60
r3
spraying
6c
126
sputter
nitro
medic
fungi
##estions
##opro
s7
infrastructure
##ench
##idin
3m
gelation
ecc
topic
aper
selectively
hydrochloric
##aces
enabled
marg
##avail
covers
##cm−2
stirrer
dext
comprising
card
milled
automatic
##ologically
cab
700°c
##np
lowered
##fluid
##echnology
branches
attributes
shaking
polishing
parabol
impos
covari
sedimentation
μmol
monocl
misc
hidden
helical
5×10
links
lignocell
m0
modifying
121
exer
1984
rotary
delta
pun
fesem
conductance
##400
deterioration
formic
shielding
##sch
grass
packaging
rupture
exchanged
uc
matlab
entirely
##ω2
functionality
versati
##torr
absorbing
recording
##ref
utilize
differs
ease
##2o7
inertial
deuter
##urc
##hydrate
intermitt
optimisation
##vin
substitu
fif
α1
na2so4
calcite
##conduc
seasonal
thermoph
##arbonate
nanostructured
8h
frozen
##vine
objects
##igu
thro
meteor
##eri
peripher
##shore
reproduce
premixed
dol
compli
##×10−5
compost
switch
desal
suit
plain
monod
532
##rie
##57
gly
##asts
thermodynamics
diffusive
traces
effluents
ju
##icc
sims
##olic
##tio3
##3d
mev
monoton
2°
flasks
bir
190
inspection
realize
xt
eigenvalues
arrhenius
##wa
sprayed
##ione
n−1
decisions
flowrate
##ocal
lump
v2o5
sp3
turbidity
questions
complementary
cros
liver
programmed
carbohydrate
##electroly
selecting
circumfer
notable
##g2
rows
##vest
permeance
hexa
han
##ece
qd
sho
##orr
##ulant
economical
osmotic
bill
1st
##eps
10−5
microf
coherent
hub
q1
1μm
##63
##olip
##idium
unload
∂u
directional
inactivation
##wi
##ema
vent
10−6
##ama
##oa
qm
intersection
multic
sapph
p25
correspondingly
cadmium
wax
60min
elmer
c18
themsel
anticip
themselves
prevents
mbr
##thane
balanced
bounds
##61
passivation
alloying
##64
##nts
##urate
ingredi
##lets
dav
##ris
hos
##uly
##za
liposomes
silane
agency
##ald
unco
propeller
benzyl
mixer
##oupl
devoted
art
outcomes
##oplastic
electrodeposition
shi
##mented
fission
##vial
worldwide
##kpa
paid
##ery
sapphire
submerged
sustained
##ica
wafers
reb
began
facing
so42−
subc
drought
cloth
1t
inev
decade
c12
mechanically
cantile
weighting
tons
m−3
##emp
##y2
pestic
pahs
regenerated
envelope
129
##itely
vl
thinner
revealing
denat
death
broader
##cb
becoming
reacts
##olation
230
intended
recognition
diseases
##ives
unmod
cuc
impossible
blending
##iciency
vorticity
belongs
##polar
##stein
belonging
camp
##oma
rmse
##ula
stopped
etch
jac
consistently
hydrolyzed
nis
mea
filtering
##gl−1
earthquake
photovoltaic
wetland
animals
##cosθ
outflow
##−n
regulatory
score
##field
approximations
electronics
responsive
harvesting
##39
filtrate
engineered
exfol
derivation
pumps
inoculated
##aka
##rer
encod
##sv
standing
al3
##azole
##holders
consequences
possessed
##gc
##uronic
abrupt
undergoes
##uits
fluorine
∫ω
france
aniline
cheng
##52
emis
separating
call
##82
##−k
bovine
canada
creates
ineff
enters
deck
minimized
avoiding
##iff
lr
10°c
##iae
savings
abstr
masses
##ripts
conical
overview
citric
cohesive
chol
bifurc
bridging
##istribution
xc
polyelectroly
##ient
automatically
##obacteria
1983
nabh4
maximize
perfor
highlight
y1
update
##×10−6
quaternary
smoke
##gpa
sieve
discharged
carbonaceous
regulations
incorporate
incoming
correctly
##icated
poorly
##≥0
clarify
lou
reductions
transformations
lesser
thiol
closure
##×0
machining
##versal
darc
cel
likewise
financially
reconstructed
pb2
nanostructure
wp
##ued
thermodynamically
vesic
rely
nos
pist
dynamical
connecting
probabilities
dns
falling
verification
##ulates
wires
##w1
undoped
polarized
##utor
dmp
said
uncon
outcome
##hl
##sively
##facture
exceeding
vaporization
f0
t3
supercapacit
##kda
dividing
failed
inequality
unmodified
immune
disruption
##t0
aure
terti
gross
characterised
vn
##osome
##rad
##ectin
students
##oresis
minutes
esi
transester
correlate
##sts
conductivities
localization
survival
brun
branched
grey
##anted
ensures
##eno
xk
swcn
qs
##−p
anchor
micelle
remediation
reflecting
commit
fabrics
mutant
##osilicate
##ua
probable
absent
850
##nes
##×3
##zi
strengthening
##azine
commission
turns
dma
10a
interconnected
1400
settings
trials
##going
fei
phthal
outlined
oscillatory
##ammonium
marginal
mich
examin
gravitational
markets
actin
western
##ilton
served
surrog
p4
sor
receptor
fragmentation
leachate
multim
rid
alkanes
##iao
##liers
5°c
staining
lignocellulosic
so3
##ked
metastable
1600
entrainment
permanent
15k
volatility
xylene
missing
##53
drawbacks
peel
uniax
tuned
schematically
profess
##ectivities
seeded
##ster
constituent
##idt
##fm
algebraic
facet
heptane
compressibility
priori
guidelines
540
70°c
ω2
shall
para
chron
inflammatory
uncoated
##osh
pixel
spill
gir
resonant
tangent
board
fruct
##z2
adopt
completion
##osidase
bioactive
markedly
##ena
extending
1°
progressive
px
##gi
##arboxyl
inform
spacer
coexist
##ctive
nzvi
comprises
##h8
tertiary
cip
rewr
2nd
##øn
##orill
consumer
margin
stop
supersaturation
##m1
##haps
##aku
##oting
pod
graphs
montm
tea
##vt
surrounded
crosso
developments
10−1
boiler
clo
plga
perhaps
library
##inges
rocks
ske
pumped
##ests
##normal
##wind
alle
solutes
bud
123
stabilizing
##oreactors
##4a
guidance
##mc
c1s
fruit
leed
susceptibility
photograph
slabs
dealing
montmorill
combustor
specifications
populations
tunneling
furf
##ister
chiral
elution
mmt
choosing
##yclic
rw
fibrous
transesterification
##α2
records
proportions
ant
harmful
##62
phb
appearing
publications
bombardment
u¯
kaolinite
eigenvalue
−3
tape
##khz
##ønsted
##x3
gun
implications
##ostatic
aureus
50mm
opportunity
transcription
##c0
disadvantages
susceptible
1l
enclosure
brønsted
##eh
mind
30°
restriction
desulf
k3
happens
opportunities
cris
render
eutectic
assessing
solely
corrug
s8
##omic
gar
differently
amplification
turning
conser
formate
darcy
manufacture
##fd
carbonization
alternating
funds
##kyo
cerium
##aniline
##rating
dissolve
##afs
requiring
delayed
progressively
discontinuous
contraction
printed
home
crossover
subsystem
groo
rigorous
##51
##vable
##mox
##mps
attempted
blended
i0
lv
minute
sy
inelastic
pka
schott
elucidate
mao
emerged
programs
010
integer
##lycer
##hedron
ethane
desorbed
##hiph
hamilton
##b0
##ariate
1×10
harvested
530
##tan
tokyo
sharing
##ihood
silicone
##68
adaptation
footprint
##j2
rans
##ng
nanocrystalline
penalty
##oon
intercalation
##∂xi
λ2
##bd
ionized
##benz
extrusion
pah
warming
superconduc
cured
documented
prone
##kg−1
##tinal
evenly
chloroph
biosensor
qc
sequencing
lumo
fal
##aki
##imp
insulating
historical
uio
strictly
##−r
finer
##iii
stakeholders
tafel
ccd
controllers
proves
##phenol
uniaxial
fran
##n1
multiv
##−y
##itron
men
hmf
parabolic
bundle
chalc
polyure
detectable
discovered
##ny
laplace
mn2
blockage
circulating
##cooh
##pread
desicc
undertaken
nmp
ky
identity
prevail
sers
##ami
150°c
##−h
theories
defines
xl
##bre
psi
##ship
duty
w2
generic
2500
yl
##ima
presumably
amylose
holdup
wides
270
softening
sofc
aerogel
nws
b0
##−d
##etary
wal
##−v
##∂x2
##thalene
diagnos
1982
tal
stagnation
widespread
wick
universi
##etheless
##ulin
pare
nonetheless
##ceived
wavelet
ozonation
β1
##imer
##inson
cyclohexane
##ch4
participants
5mg
decompose
microcr
##fts
physis
##lementing
electrospinning
dme
centrifugal
opin
rarely
gather
repulsive
sir
isopropanol
glasses
csp
elongated
serves
1r
glassy
lists
ink
humic
##eting
graft
##oxygen
string
lg
enabling
dz
fluctuating
isotope
##iaz
byproduc
coastal
osm
##bf
interm
genome
azim
datasets
##eine
detonation
##−q
photoelectro
nip
piston
diges
113
dominates
hong
mitigation
live
d3
drinking
##ostat
lanthan
##itt
##92
division
detectors
penetrate
specificity
δv
mason
##cooling
##ulfide
hh
guo
male
backward
soybe
##mj
bragg
shifting
discrim
##84
meoh
##ypt
##coo
n0
paraffin
returns
approaching
meteorological
##stone
montmorillonite
λ1
reader
falls
compaction
cellulase
detrim
##fy
unexp
carbohydrates
260
ohmic
prevented
lique
##iol
brain
prism
##imidaz
##structures
gmb
025
reduct
blast
##obs
##ophosph
##±2
rct
##ille
cnc
handle
fillers
accumulate
clamp
##ethox
##omeric
##epti
valves
alteration
detachment
macroph
rac
worst
##idation
inducing
textural
##ional
monoxide
cd2
substitute
3°
residuals
possibilities
cantilever
antif
implied
##mon
sorbents
biosynthesis
ldhs
antibiotic
preserved
photoch
lem
##imension
allevi
aunps
magnitudes
##fn
##che
attribute
monoclinic
sake
crystallized
undesirable
carr
##psin
xs
##board
permittivity
delamination
bow
sinus
extrud
formulas
##odi
shedding
accid
forcing
##wid
133
122
weakened
nim
auger
anomal
discharging
income
compensation
answ
2ml
cook
##vinyl
##vy
0m
1981
smith
4°
##jin
##78
##quinone
evolved
zi
##uran
hone
cooperation
porph
6ev
relies
##anine
##ees
##occus
retain
##pen
diethyl
131
mutual
relaxed
##asses
likel
##gt
tips
##parts
##ouling
strongest
nucleus
9b
covariance
dramatic
gmbh
124
preference
ia
intes
bend
sup
faults
rigaku
##72
bad
amplified
##71
allocation
pareto
radioactive
cup
rearrang
##olite
##oplas
intake
scar
person
impingement
shaft
disappearance
spar
bases
albumin
spinning
tert
kel
##opolymers
din
likelihood
##2s3
methoxy
termination
plasticity
analyse
crops
##terior
0g
isomerization
entries
cri
poured
linearity
indexed
residential
sar
habit
##benzene
offshore
kumar
##∂θ
skew
##extr
biosorption
eo
schottky
adopting
suffer
arabin
bcc
cin
mold
amphiph
∼2
electrospun
depended
##yne
prototype
kda
ck
##ells
trimethyl
infection
pm2
proximity
vocs
##ener
divergence
throughput
imaginary
counterparts
originating
discharges
irresp
##vc
shaker
##ado
soon
consolid
gao
stere
##iton
hematite
bmim
permeable
myc
hea
250°c
pressed
extrapolation
vulner
threat
##width
quar
templates
stained
trees
individually
purely
##isi
micropore
σ2
##ammox
degen
acyl
goals
##gf
connectivity
285
skeleton
termed
ti3c2
von
pixels
advances
∑n
sns
##uh
interpret
##ocytes
hybridization
nav
##bert
latex
polymorph
60°
constitute
programme
frameworks
lamellar
##space
scher
hw
guang
esr
sq
pce
##foil
etoh
##2p
spp
deploy
##yrin
prosp
aldehyde
##ola
protonated
moles
injector
pap
piece
##ynthetic
olefins
isomers
diode
1e
uj
surrogate
310
cultivated
oscillating
boost
∼10
philips
translation
ferromagnetic
3mm
sponge
##apsules
##quist
adoption
##¯i
inhibiting
widths
##adays
corrob
video
multiphase
traction
quenched
##oe
pedest
cof
##4nm
cem
unfav
nife
balances
literatures
blades
depress
pigment
circumst
carbides
po4
file
##particles
rsm
triggered
##jiang
floccul
certainly
integrals
freshwater
succ
##tesian
positron
columnar
resemb
aperture
priority
pyrite
aromatics
sce
nowadays
inhomogeneous
##even
discrepancies
shared
##a0
transmitted
mand
clays
soybean
##amb
##arity
unreacted
analytically
bead
articles
introduces
converge
anammox
antigen
desalination
dpp
relev
##entric
universities
##αβ
sz
##ida
ll
grew
laborator
indirectly
tac
lime
fractured
plastics
enlarged
kal
intermetallic
ji
hcp
economically
##oct
##elets
##gd
decolorization
tj
c8
circles
eulerian
selectivities
coat
agreed
invariant
μs
compositional
palm
ple
100nm
htc
compliance
neu
transparency
10−2
enfor
##iled
##¯1
conjunction
ej
reser
moduli
team
nanofiber
sunlight
##v1
sulfon
sole
bottle
careful
layout
ml−1
collect
##−ρ
psf
incremental
1970
1300
scavenging
glycos
polyvinyl
##tier
##−m
116
cpu
450°c
categor
singh
##ensitive
satisfying
sas
2100
interpl
granule
lactose
oa
##uchi
squared
detrimental
furfural
spark
##hardness
β2
applies
ultrafiltration
declined
periodically
wf
neurons
kil
bubbling
##opyr
polydisper
5ev
##−α
cartesian
##key
plasmon
ductile
ag3
puls
145
blocked
electrocatalysts
rose
publication
ferrous
900°c
ensuring
2f
c2h4
deplet
simpler
turbines
thinning
##v0
counterpart
inversely
pemfc
fertilizer
disperse
circumferential
reversed
irrespective
epitax
hindered
annulus
##function
adjustable
milli
participate
capturing
##asse
simplify
pus
fibr
exploited
ek
5s
partitioning
##uy
fe0
centerline
sacrif
melted
relevance
350°c
##osaccharides
011
catchments
##lear
##gers
##¯2
releasing
opto
computationally
protr
reusability
##nc
pits
##sson
gce
referring
suited
##ophen
mirror
##estone
contrad
suppose
##≤0
##qi
fv
##×4
##83
decided
micropl
pigments
hk
austenite
cutoff
7c
ov
scanned
relate
seemed
australia
fecl3
conditional
cyclone
##uled
hourly
fused
conjugation
radion
##entz
##enty
##orh
corrosive
##q2
##enn
microhardness
lyso
380
jsm
pha
freshly
##hy
##n−1
relating
today
instabilities
linkage
bw
##cyc
dropwise
pyroly
i1
petro
wetlands
heterostructure
132
monotonic
probabil
recrystallization
2×10
dextran
upgrad
activate
mad
patterned
114
flocs
nitrification
##uments
bra
radionucl
percolation
offered
reflectivity
wwt
arrangements
##93
probabilistic
protected
##pyr
counts
##iving
swirl
exploration
chao
finger
xen
q˙
forecast
cyst
prevention
1979
gg
asymmetry
unexpected
performs
implementing
exciton
tfc
z2
wheel
dichloromethane
surp
sad
##izable
oral
##uge
##tification
tcp
slot
bifurcation
observable
d6
fash
tended
vertex
evidently
you
impinging
interl
sterile
mfi
methacrylate
depar
wellb
inclusions
##d1
fructose
sbr
##uan
wavenumber
methodologies
spik
sonicated
nanosph
ug
##emistry
cx
hzsm
fired
##activated
175
##econd
##electronic
fuller
conditioned
sapo
participation
hydrodynamics
manual
behave
intention
olive
fto
clearance
massi
bem
cerevis
003
metrics
symbols
2μm
##iger
viol
##ouring
mur
##3o
monochrom
axisymmetric
##oks
##last
discovery
transducer
##erately
retrof
##hood
##ja
##uctive
##cm−3
##usp
jem
acetylene
ferroelectric
mm2
cr2o3
gravimetric
cred
##−4
academ
nicolet
emm
translational
##ropylene
characterizing
biob
δf
311
mine
dominate
rail
chord
guest
assemblies
strept
wherein
dcm
laboratories
elabor
20ml
##h2po4
southern
−5
##arded
hydrogenated
disinte
##76
##gress
##entate
degrading
sant
automated
intell
rivers
enthalp
poisoning
cube
masonry
isobut
climatic
obstacle
spiral
ce3
##w2
bron
pear
loose
starches
##assing
δu
thiophene
cerevisiae
8°
swed
precon
yr
emissivity
narrower
118
##−s
dedicated
nj
tribological
dotted
##fcs
sept
fashion
torsional
definitions
carbonation
dupl
initiator
extends
century
##atm
worse
−4
unp
##itated
2l
perv
decorated
interested
##ymethyl
restoration
exponentially
yan
phyt
pressurized
##c3
switched
primers
rip
implants
corners
004
favourable
presenting
120°c
hop
notation
##gh2
relates
550°c
strengthened
##1000
inexp
martens
valley
naphth
##station
##ading
##etes
opened
##∂p
10b
1000°c
crossing
na2co3
ellips
##ota
ruth
looking
##94
variants
unclear
refrigeration
2p1
##coming
meaningful
accessibility
linkages
oligomers
##fold
sinusoidal
glucan
conducive
northern
##xn
tpp
ageing
examining
taiw
oxidize
tried
##lp
mechanistic
tpa
340
b4
anticipated
sent
combines
page
incons
##ptive
5cm
teller
reproduced
intermittent
basins
chambers
www
subscript
microg
slit
deficient
compensate
165
z1
frequent
##λ2
hms
rk
mutation
mats
microbes
##ensis
##rox
emphasized
##vern
tasks
##scatter
wool
##urable
unloading
flamm
0≤
##ococcus
phyl
##uate
bottles
mature
##atomic
10nm
branching
incin
tween
reused
##800
pdo
lactate
null
actuator
ipa
rewritten
schm
opposed
perception
##π2
##ologous
homogenization
summation
##inance
δr
acted
rab
adequately
xp
crn
3g
destroyed
##inator
dls
strategic
##iller
exterior
##ountain
cnfs
versatile
martin
##onucle
zw
##opropyl
condensate
walled
propagating
nanowire
ew
6d
nah
##icity
amb
##bye
phe
##f3
##no3
isolate
items
drum
reductive
bam
##ylon
trailing
pharmac
##obenzene
triangle
a4
definite
nitroph
ch3oh
dpa
wellbore
pyrrol
hip
##enedi
versa
##sity
10°
digested
##rocal
unable
polypropylene
inconsist
initiate
custom
silanol
coa
colored
coulomb
humans
dta
densi
inactive
prem
hur
geological
##eritics
insert
fracturing
spain
##ogl
neighbors
nyquist
scheduling
##din
uniqu
relie
receiving
micromeritics
keeps
write
polyurethane
heavily
##etrically
assimil
brownian
timing
soph
glutar
carcin
##sonic
##l1
##kα
hydrostatic
distorted
equilibrated
collecting
inher
4mm
ssa
##3n4
refract
taiwan
##rupted
wish
6°
detecting
exclusively
cooler
##lasts
overe
dew
escape
##availability
##r0
inexpensive
d8
severely
wetted
increments
6000
##anone
hyperb
nucleate
##pos
hydraz
sbf
saed
inductively
facilitating
##phen
monotonically
##band
##g1
uhv
##diff
γ1
controllable
##zhou
sensible
##utable
pedestri
disappears
viewed
lysozyme
microfluid
backscatter
6mm
##mt
vice
##osc
beaker
hereafter
2ev
pom
##acetic
disadvantage
exclusion
viz
leached
±1
bacillus
catech
##agon
##cl4
##ransp
antibodies
kir
lorentz
##−a
matches
afford
curc
forecasting
paint
augmented
experiences
primer
household
phosphoric
##ipore
adm
inspired
enterprises
sacchar
##irc
establishing
##icillin
##δx
##orable
resolve
1800
cec
coc
##aboration
reciprocal
wgs
catalyze
virgin
batches
seal
##ochond
##≈0
aiming
adatoms
confocal
##¯0
330
visualized
surprisingly
wastewaters
hco3
##echanical
develops
225
thom
##agger
indexes
nanometer
biodegradability
bb
story
##−b
microparticles
inas
##∫ω
cleaner
##embrane
γ2
lung
agglomerate
debye
exerted
anhydride
tianjin
reality
211
asper
eluted
retrie
ing
tightly
##vh
1mg
##81
indenter
##amate
cdte
comments
qw
rearrangement
discontinuity
flange
##ulants
##ompon
insulin
mitigate
decoupl
##x0
qp
tann
gast
yuan
homogeneously
stacked
potato
zeiss
dopants
##2θ
simplest
##iry
vegetable
##μmol
scherrer
lagrange
uneven
converting
glycine
polyester
martensite
##metic
naphthalene
hindrance
carboxylate
##inter
isotopic
closest
950
ρl
variant
−20
vacc
constructing
##arium
abrasive
nap
highlights
intram
dimers
lyoph
casein
−k
##balance
peng
analytic
jacob
traps
##osures
tss
simulator
evacuation
perturbations
originate
##emulsion
##fier
##particle
got
imprin
tib
limestone
##apatite
##dz
304
##i1
song
ultrap
cass
20mm
stepwise
jacket
cheap
tel
w0
hus
##kely
recall
mnps
##ups
landsc
observing
superposition
millipore
appreciable
λmax
immediate
aryl
depleted
viscosities
##dl
mec
##hedra
440
wed
##opharm
520
gac
134
apr
tilt
mtt
expanding
hybrids
1min
288
##oside
malt
integrate
linker
##u0
walk
##haus
##zation
helm
breakup
stimulated
jones
##ners
rating
##ographical
coval
helix
scienti
##rag
scores
cm−3
honeyc
tort
conflict
q0
plau
##toral
##ault
tv
fas
##dehydes
##fb
##tid
workpi
electrically
##abs
##oxides
1wt
nonlinearity
##athin
##odextr
academic
##∂n
mxene
chromatographic
reproducible
dimp
−12
corrections
union
perceived
119
##74
##limation
in2o3
quadrature
##otive
rom
smoothing
##se2
cathodes
mgso4
neglecting
##μs
quadrup
powers
groove
successively
155
144
gsh
logistic
dea
chap
ingredients
situated
diphenyl
redistribution
grooves
1978
##ethoxys
polyelectrolyte
proc
linearized
supplier
lid
unlikely
reporting
iodide
999
overexp
gem
##irection
poster
##∑n
tetram
ruthenium
##ims
security
occupy
tms
whey
sheath
##hen
##rig
nearby
f3
establishment
ultrathin
fluent
ultrapure
##r3
plotting
gains
oleic
strand
##yz
ecm
carbonates
mouse
capacitive
fifth
##cha
deuterium
hν
sulfonic
hydrolysate
originates
favors
wavy
degassed
dissipated
i−
ρs
##yan
meta
cowork
jin
##erson
unus
222
##ateral
##dv
specially
protease
chemisorbed
sequentially
pyram
retail
inverted
consor
sle
monodisper
depro
##∂v
dendrim
mitochond
polyamide
repeatedly
monoch
bism
ih
αi
analogy
maxwell
posterior
−10
nether
4m
crushed
##oyl
preferable
##net
collocation
gdl
isopropyl
healthy
##tp
suitability
pld
orthorh
tds
dong
cms
##imensional
registered
trip
obli
##isph
nx
##thi
photochemical
subjects
aga
halogen
cardi
s9
macromolecules
012
deconvol
specification
singlet
outward
136
##moll−1
obstacles
##ressure
willi
galer
imperf
shield
whereby
orthorhombic
vast
spanwise
##≤1
desulfurization
slender
destabil
303
compartments
arrows
microchannels
ua
ultrasonication
colle
evap
lumped
##asion
pcs
z0
hamiltonian
10h
25mm
vesicles
##×n
galerkin
graded
##aporation
coworkers
##oil
tmax
multiplied
mgcl2
inp
mbe
pj
wei
thermoelectric
truncated
enthalpies
##s1
rural
emphasis
ρg
##oned
withdrawn
oes
streamlines
mentioning
jiangsu
sj
##pta
154
welded
attributable
gauss
dq
480
compressible
happen
##gar
remote
failures
sps
portions
intervention
##ony
pga
##u1
seeding
tortu
bent
o1s
adapt
micellar
tx
##t3
290
receiver
accommodate
aj
gon
##umb
hg2
surge
frp
thermos
sag
l3
##udsen
convenience
glutaraldehyde
brings
tunable
functionalities
foreign
aerogels
90°c
reads
photod
##eb
butane
brill
##ower
microcapsules
7h2o
priv
lighting
stay
##db
ag3po4
biomaterials
tabulated
nag
evaluations
equilibria
1nm
fixation
bismuth
##yrate
brunauer
ensured
modular
fellow
defective
ws2
polyacryl
##wo6
maize
expressing
lw
epa
anodes
clea
##lob
0mm
##ought
rat
531
##ml−1
lsc
ρ0
trop
submitted
occupants
agno3
eliminating
conformational
transfers
justified
mnox
reviews
4π
##olin
moc
divalent
4h2o
##ageen
affor
##k0
galactose
regards
routine
##icin
advection
##omponent
##owski
intercalated
chelating
##version
015
138
##article
1∞
##holtz
##nan
coincide
manually
##umann
##param
##hpo4
anoxic
mam
168
photoan
amphiphilic
tiny
varian
dehydrogenase
octane
y0
burst
cosθ
knudsen
denser
carrageen
topological
normalization
ok
300k
##ava
2×2
soaked
inacc
apopt
expert
engineers
multilayers
##ublic
ansys
fitness
dialysis
zheng
vox
##201
reinforcing
chips
ruo2
c10
##uri
##umen
characterizations
reading
vfa
##nps
##omorph
rigidity
globally
##phthal
nozzles
medicine
eastern
suppliers
4g
superimp
curcumin
manifold
kol
donors
pnip
concave
##otransp
protonation
xm
wrink
hydroxides
ecosystems
intellig
##esh
cage
##oselectivity
7°
dyeing
apoptosis
##ugin
distric
shaken
##psum
march
malvern
##rec
ally
##neum
subset
nanospheres
##β2
fun
depositing
periodicity
sophistic
springs
##p3
##ergetic
openings
hemisph
massive
campa
bz
workpiece
phenols
converged
illustration
job
ascorb
coars
t4
gpc
netherlands
##rm
ads
egg
alp
ceiling
sst
dodecyl
##ρg
ccs
##ophore
coverages
collabor
aptes
ras
heterostructures
thous
##eterm
fort
pervaporation
transforms
migrate
##i0
ships
li2
h3po4
snaps
##iction
##cg
airfoil
a5
trough
##inear
republic
anchored
ranking
##div
placing
campaign
slide
1ev
##−10
100mm
x¯
moderately
jth
bi2o3
peroxid
dcp
stone
dk
##eral
cooperative
##orre
focal
aze
biore
july
purged
abstraction
##tf
tens
intramolecular
escal
θ1
aldehydes
promp
##opent
##p0
unfavorable
snapsh
##edia
provision
subun
cracked
cholester
##σ2
##areness
pdi
soaking
electrophoresis
acetaldehyde
marker
apatite
thermophilic
2r
##oin
grants
tcd
smoother
##nas
compromise
covalently
##ulse
coher
fh
entang
constitutes
patches
honeycomb
polyaniline
##oo
dissociated
microorganism
mgh2
accidents
2nm
pesticides
0ml
june
##tx
##therm
sinks
bicarbonate
hydrologic
helmholtz
polyt
organizations
##ray
patient
2min
gdp
nv
freely
##oven
homogenized
occupancy
n3
##structured
∂v
l0
1−x
dbt
crushing
abnormal
buffered
motivated
##ρl
trained
fringes
adh
kaolin
thermochemical
polynomials
gauges
shen
olefin
pharmaceuticals
scf
##osomal
##elli
dj
##lite
10μm
coincides
##ocyanate
diminished
ho2
−δ
ub
rotated
asphaltene
preceding
diagnosis
virtually
bioreactors
solubilization
experts
italy
expense
##rites
oxalic
colloids
epitaxy
flakes
pyrid
sealing
throat
fibrob
##forms
substituents
##l4
##e1
##pg
1976
maintains
discl
ja
stagger
##tilis
factory
luc
tro
sen
baffle
fulfill
centro
eluent
##raph
10mg
##inescent
disks
##oint
chil
deconvoluted
histories
phospholip
##uni
evapotransp
mus
##α1
3d5
proceeded
deproton
places
plla
##tism
acknowledges
conserved
osteob
deconv
adhered
##sol
feedstocks
shadow
eccentric
si3n4
cdse
remanu
nod
contacting
nrs
push
hydroxyapatite
##itter
##lability
ud
lubricant
bioavailability
pseudomonas
initio
regulate
spall
##idi
preserv
hart
dihydro
diffused
16s
3e
behaves
msw
brack
cj
platelets
##ometallic
dtg
x∈
∼3
##123
stead
centrifuge
neutralization
microalgal
bi2wo6
##qe
mimic
##kb
turnover
liquefaction
##ycin
severity
152
nylon
##zc
calorimetry
pel
wat
##ael
acidification
kong
evapotranspiration
endow
bern
variational
gallium
##sil
departure
foaming
tric
δ2
##f0
ebs
vertices
incen
iec
infin
##oul
colloid
tial
yag
averages
switzer
polyg
biocl
recommendations
stratification
pds
hun
pressing
##rh
tyros
##augh
##rotron
alloc
colonies
encoding
mcs
permits
nadh
10wt
operates
j2
paramagnetic
rats
##rea
mountain
calcd
kcal
##so3
formations
williams
cr3
graphi
##activ
attitude
##ometers
switzerland
beneath
electrochemically
##4o
multiplying
##n0
spaced
biotechnology
coexistence
plausible
evacuated
awareness
torr
tester
drs
006
caro
containment
logic
##etermined
repeating
gear
mari
came
g0
##ido
po43
tps
##ux
automotive
synergy
crater
##ihil
inhibits
##ese
independence
##ocking
energetically
sear
balls
##kr
diodes
propell
alkane
hds
8c
y2o3
disulfide
annihil
mou
vin
triplet
##γ2
biopolymer
1977
seconds
##bing
ω1
##isite
spline
dendritic
##formed
##tible
##qt
∼5
loos
bagasse
simplification
mcf
##q1
##uels
csr
housing
night
neighbour
dow
##yy
##emission
c16
##year
endoth
insulator
cps
synchrotron
abl
hemicell
amongst
tma
atcc
tnt
cited
##spec
harb
screened
##uristic
biobr
classic
sophisticated
deficiency
biofuel
justif
biocompatible
adsorbates
##otic
bayes
vascular
##ollen
worked
manipulation
interacts
1975
##tosis
feng
corp
physico
##fluoro
flower
##itant
##imethyl
acquire
subtilis
nk
ωi
sher
regener
propene
electrocatalyst
##79
extracting
releases
11a
amylase
heart
stear
protocols
shot
precondition
1−α
##−β
lakes
##oprote
restrictions
propagate
aba
bundles
abrasion
unsu
##oning
##adiene
emmett
sidewall
lysine
casing
denaturation
##fit
stro
exploring
explan
##sd
lad
hg0
buty
circumstances
##oretic
nico
qr
##with
##isp
ascertain
lubrication
##arian
partners
hydrolytic
manufacturers
necessity
bun
drawing
dup
lying
fx
##com
afric
approached
twisted
separations
ellipso
subtracting
biofilms
tce
deh
##54
fractionation
qh
choices
stratified
similarities
pend
johns
american
##w0
nial
θi
brick
##ket
oscillator
exponents
entered
##s4
##irectional
pine
cig
ρf
##nh
286
sterilized
garc
acceptance
oligomer
seasons
ero
remanufact
##went
thaw
clock
raising
tie
pock
##mbar
σ0
##kjmol−1
142
##side
##ora
trem
labelled
perimeter
pid
tent
discs
v3
scientists
bjh
dω
tand
endogenous
##olymer
grained
30s
name
fellowship
mcn
tritium
junctions
##×10−2
argument
silk
symbol
chaotic
refractory
10g
50nm
8000
costly
##borne
cysteine
##anedi
realization
chose
##environ
leave
finished
4v
assignment
perforated
helped
##uron
##bur
mica
collaboration
alkalinity
superstructure
strips
clarified
##adequ
mma
compensated
lined
##umes
epith
t−1
ρc
##oles
##lements
unw
pbi
##lm
ban
nur
c2h2
overlapped
approved
pbe
underwent
mq
refining
jan
##weight
getting
fires
cet
resusp
vo2
schmidt
293
opinion
##aint
cholesterol
diagnostic
nanosheet
insulated
##acity
pier
##ala
ik
suggestions
inadequ
##∂ω
fy
deconvolution
##exc
##onomic
gypsum
gga
detached
##ethoxysilane
430
constantly
pictures
shortest
##wo4
35°c
returned
##eman
monochromatic
bipolar
##cooled
hx
discarded
metallurg
##uvate
blowing
propyl
##ijk
##attach
billion
##ichia
capped
sparse
altering
sccm
musc
capping
cl2
modulated
swollen
transist
bk
##amn
##acin
underwater
customers
##ycl
##aea
reversal
sbet
##kov
involvement
repetition
oxygenated
xg
appropriately
excluding
162
bmp
gri
sma
##ensus
psa
##eco
farad
consequent
1v
descript
##oked
cryogenic
viewpoint
##∂y2
460
jc
argued
platforms
##hf
##onding
scco2
herb
s10
##∂ξ
game
4e
##asted
microbi
srtio3
claimed
desorb
minima
steadily
mesopore
equilibration
lipases
stimulation
f−
cytoplas
##uginosa
views
characterisation
differed
feooh
september
fischer
znse
signaling
##etting
##bo3
##aric
cyanide
preparations
genus
dan
##aper
##anar
attenuated
##utter
yaw
landscape
##ashi
##md
shearing
neighborhood
hydrates
lane
dewater
##rowth
transmembrane
mip
inferior
##→2
cys
fluorinated
henry
8mm
monolithic
august
stretched
insensitive
neutrons
estimations
electrone
dmc
discretiz
##grid
xf
##tress
exafs
##hc
mutants
mooring
micr
##gro
pneum
demonstration
##×5
biofuels
acrylate
compete
c7
ery
100mg
##pn
tba
##otide
##sia
densification
8ev
nond
electrolytic
damages
##−i
##pu
##ologic
garcia
libs
carbox
vfas
js
promoters
excitations
louis
rhodamine
bandwidth
pso
##itary
semicirc
carrageenan
γi
electroless
410
##89
20°
cpe
##69
customer
fel
luo
anthrop
staggered
aliquots
la2o3
kla
##a3
##kar
interview
intestinal
aeruginosa
regulating
##opyrite
purge
thresholds
flour
graphical
141
##empl
mist
tracks
achieves
zs
##tee
osmosis
abd
superoxide
producer
collectors
zig
sure
147
##aj
porphyrin
143
subdom
multivariate
evolutionary
unid
ahead
kid
##c6
lastly
harsh
vle
iran
adsorbing
##hg
##00cm−1
##iated
##idone
connect
fuc
gent
ocp
pipelines
9°
distributor
##ressed
bioref
ideally
richards
isotopes
nex
breaks
rj
breat
transferring
##iratory
xb
wb
agarose
entrapped
catal
attract
constituted
##−z
##gressive
lacking
depression
eu3
r→
php
##h0
pts
enorm
pave
hundreds
civ
raise
doublet
subscripts
no2−
##ret
agglomerated
##−u
##qd
traditionally
sieved
##−γ
octo
supr
noticeably
##but
respondents
xr
chart
##idene
ongoing
##isk
enclosed
j1
nanoh
microt
pole
hexadec
microfluidic
1o2
cultiv
foils
mission
sticking
stressed
ω0
##yt
sox
anodization
foods
ytt
##8nm
secretion
kth
t∈
influential
niob
##f6
johnson
textured
tidal
counted
biology
logarithm
private
durations
##lam
##rene
##700
mo2c
displaced
emulsification
6m
##iotic
shake
72h
frost
flush
##m2g−1
guess
basicity
##ales
esp
fabricating
dehydrated
outper
pyrene
dispersing
alternate
interphase
##mim
standardized
physisorption
tailored
optoelectronic
##nam
persulfate
questionna
vmax
measurable
institutions
electroch
rud
bypass
powdered
eye
scarc
smx
yam
bq
##xj
rhiz
adsorptive
×100
dilu
default
##omycin
##δp
markers
normalised
##−μ
mgal
pointing
##lattice
12a
tumors
##itably
photoemission
drivers
scarce
##fying
student
generators
##ipient
nanob
##ibly
restrict
##ifers
acs
kan
bimodal
passeng
nutrition
possessing
centres
disinfection
##issible
persistent
##ancer
elliptical
##uz
thermophysical
kur
digest
distinctive
unusual
resili
h4
digester
jas
##−θ
dolom
jour
##ract
1f
receive
20nm
##ime
lattices
destructive
corporate
granulation
∂p
trading
obtains
sulfides
categorized
catechol
wol
nico2
borehole
inoculation
t−t
border
glac
δc
##µm
tremend
xy
##ropic
c11
solvation
polluted
pere
thread
fails
imidazole
x→
fines
kx
collective
emergence
makers
mrna
##radi
drifts
##sccm
workstation
multicomponent
##anoic
chance
cox
tam
wd
incineration
unaff
rotations
##reads
##uf
bell
qn
seriously
sx
pinch
weber
ripp
socio
##icing
cui
wur
dirich
doe
nss
wm
##odextrin
##ren
σ1
michael
jn
nak
inevitably
receptors
xylanase
##kp
lose
##kd
scs
bacterium
3s
plen
chp
ql
rheed
dirichlet
##2o8
##ontrol
intrap
rins
updating
capsules
##oi
cts
##mat
2v
##ethane
embr
reven
##oglob
##hel
##ewise
3ev
geothermal
remainder
explosive
academy
3×10
ideas
tract
omitted
nucleophilic
2μ
summarize
wca
diaz
hopping
vill
##3n
##127
meeting
λi
meters
##oz
subsid
piecewise
dsm
dominating
1j
lsp
##enic
serial
##isa
##anuary
##orn
exploitation
qin
ketone
mfcs
timber
##achlor
microcryst
ni2p
##aya
readings
rbs
cohesion
viral
##orientation
distinction
##cel
summarised
january
ods
hpc
nanoclust
byproducts
lj
king
3ml
θ2
##∕2
oxalate
heats
replicates
##rome
pvd
converges
anchoring
ascorbic
sess
peat
acac
##induc
∇⋅
optics
tetrac
facts
##58
yt
hydrochloride
touch
october
strained
##ms−1
lymp
fj
heave
ε2
mathematically
##ysis
scw
tubing
immisc
spur
exfoliation
##fan
burden
austeni
speaking
respiratory
corrugated
vw
crisis
##uloses
##aceae
api
##uthal
##ilies
peculi
11b
##−λ
hydrides
orc
manipulated
impulse
tox
depolymer
nahco3
estimator
revolution
statistic
wedge
rocking
trypsin
tack
electrom
capsule
retrofit
accelerates
##erical
heteroatom
cofe2o4
producers
510
supersonic
r4
instances
139
3rd
##henyl
farmers
##chi
aquifers
1972
scission
school
5l
##ogging
merely
pond
america
tandem
preserve
perfluor
##nai
##gm
nanoporous
∂ω
0ev
jsc
##−f
##opectin
wpi
confer
ch2cl2
provinces
xˆ
doing
bayesian
therein
dairy
adduc
∂y
bioi
parad
tune
repeatability
##holder
abilities
hydrazine
transitional
ti4
modifier
analyser
inject
jacobian
##59
1p
μt
unaffected
csc
s11
##−l
7d
lst
##ranular
evolve
schw
∫γ
##osyl
yj
##×g
peripheral
148
hosp
dict
concom
recircul
correlates
extrapolated
cstr
canon
##−σ
containers
incon
##west
nitrob
80°
circuits
evaporating
nitriding
sio
##oli
0°c
so4−
csi
regularly
speculated
stopping
azimuthal
canopy
phi
photographs
methanation
crust
april
k4
colony
endothelial
repeti
cellulosic
2wt
biopolymers
dangling
δd
trypt
sty
triton
propion
platelet
trivial
poli
xenon
stimuli
1×1
neck
save
laminated
format
girder
amylopectin
allowable
fft
##ck
ssc
##fe0
lemma
alt
phs
sublimation
radiant
terrace
caroten
##−w
4ev
##−ω
upwind
##akis
rhamn
peclet
impacted
photolysis
##alytical
cqds
##rocess
electrodepos
statement
t∗
xie
infected
370
##oll
##jan
δm
fluka
epoxidation
addressing
pulver
3nm
##ubs
dex
peroxidase
pls
heteroc
273
tech
gathered
##room
##bn
gj
planned
miller
anomalous
oblique
really
crow
nb2o5
##environment
concomitant
##tiles
dissimil
neumann
align
interg
325
street
pyrrole
cen
c3h6
brush
supersc
tortuosity
chlorinated
isop
##×10−7
incubator
##ronic
proposes
meant
146
que
##prop
hay
zvi
##iba
committee
biomolecules
differing
2mg
##eas
cpc
emphasize
##udes
photosynthetic
machines
melamine
asap
semiconducting
scin
satisfaction
##adsor
μa
##ytes
##001
ribb
prestress
##ularities
calorimeter
163
##dω
pcc
##du
##lo4
xa
##othi
bitumen
##hv
lbl
multifunctional
100μm
##ophores
systemic
##nia
solvothermal
dosing
bifunctional
cfu
heuristic
reversibility
deem
##asis
movements
magnetically
##sio2
kmol
##kel
wen
lng
quench
##opo
actively
hcho
scavenger
answer
##iro
pyruvate
mbar
gasifier
executed
cfrp
p3ht
extractant
##ube
meat
harvest
acute
##oping
sugarc
##−ε
3min
dich
merg
nay
nanod
altitude
313
##oper
deals
signs
##aba
sandstone
∑m
tour
lock
expectation
exposing
clamped
156
##amino
embedding
visually
##pps
bf4
horizontally
nsc
##coat
redund
ρv
rinsing
bea
sugarcane
hil
##alization
slides
approx
dum
polydispersity
aisi
additions
guaranteed
slo
wrapped
ebsd
placement
biosorb
##urance
##cting
180°
##ifiers
structurally
assessments
##2s4
firing
reducibility
tmc
##sinθ
biased
δl
153
entrap
lan
10m
tz
ortho
precious
ξ1
escher
nanoind
##ogluc
consume
sinopharm
6g
##urfact
lamb
district
dmem
niger
##osene
peb
3h2o
d2o
##otherapy
macrophages
151
elucidated
##icyl
##tg
ga2o3
##iser
hair
##points
emitter
seab
fick
singularity
families
dech
##50cm−1
sulfonated
ce4
inserting
multiplier
matters
transducers
##d−1
epoxide
sams
moss
constructs
perspec
gol
eryth
irradiance
##atio3
alfa
tray
ribs
δn
xrf
reformer
bulky
##induced
staff
dependencies
##eds
superheat
##aria
consensus
perspectives
##imi
genomic
ch2o
##kgy
monomeric
infinity
liang
5h2o
1974
postulated
hypothesized
retentate
rrna
ie
vss
organism
speciation
##pq
delays
capacitor
##box
##amer
gv
##tiveness
161
quarter
xanes
rodrig
managers
1mol
θ0
ssf
wl
danger
benzaldehyde
transgen
pim
dryer
##uary
kerosene
sieves
metabolite
generations
condensing
##atures
macropores
ry
settle
kh2po4
##meyer
e3
comprise
filaments
intraparticle
hpm
##idge
tcs
##ented
pione
nanometers
burned
grating
hepar
berg
concentric
##acetate
rv
ultrasonically
316l
responsibility
diffuser
langu
portable
supercapacitor
chalcopyrite
upgrading
convolution
anthropogenic
dispers
hamm
cs2
underground
unknowns
ago
1960
##loys
ni0
##sb
scholarship
glow
driver
vj
aero
butene
polyimide
intensively
antifouling
butyrate
##opyran
tilted
3f
##zy
optically
##ρf
emim
preservation
rolled
twenty
δy
baffles
exposures
qa
ξ2
diet
##8k
juice
superimposed
flatten
##ulsions
oxidants
licl
lighter
cmp
paul
subsection
databases
##vation
illuminated
tetrahyd
urbanization
##edes
sequest
edd
nts
##jo
hpa
sei
advancing
vibrating
xia
bid
##incial
fidel
damper
igg
nitrates
fk
##nal
underestimated
k2co3
propulsion
escherichia
ptc
dialy
inadequate
buried
##ications
behaviours
clostr
upl
hazards
020
encomp
1973
achievable
cooking
##atization
−d
vanad
knock
observer
periphery
##related
polymerized
think
lbm
saft
##etical
##zes
##˜i
hrp
##unov
##rifying
235
j0
##lv
optimised
explaining
650°c
##enko
nano3
dub
##λ1
##ycline
striking
novo
diab
10s
worn
cyto
subdiv
c2h6
deloc
choi
acceptors
happened
retro
employs
analysing
stimulate
cns
t¯
spontaneously
tlc
##oic
xin
inevitable
##andez
stems
##ander
##alian
kelvin
trape
coded
imb
predictor
164
undergoing
2019a
sr2
mammal
##enberg
po43−
d4
##nx
barium
##my
##zag
avoids
dish
disintegration
powered
epil
som
swcnt
enormous
0∞
electropl
##iltr
kbt
supercapacitors
perchlor
chim
duplicate
fen
decays
activating
oled
flam
motivation
corona
want
##ilateral
correspondence
comprehensively
##ibrate
bioethanol
stabilities
1→
laun
##pin
cytos
vials
wavegu
formulae
decel
200nm
sta
divertor
mouth
##×105
yn
confining
##agne
##ε2
biocatalyst
exclude
##ila
photoinduced
predetermined
lasers
6f
##energy
c¯
presentation
##pf
embod
micrometer
schedule
coerc
##ξ2
microemulsion
fidelity
##mf
lati
deemed
exhaus
inherently
solubil
cbm
embry
tall
trapez
g3
##θ2
heaters
malay
167
skill
##utation
declines
sided
seep
30ml
diatom
##atum
tomography
##hu
50mg
2018a
electronega
instrumental
aud
recon
##∇2
scrub
dechlor
sweden
mse
progression
##efined
4nm
##eptide
##teen
discern
δz
false
muscle
smp
retaining
corrobor
centred
ketones
660
economics
kle
mush
na2s
##nl
##ochlor
pept
##qc
nik
3500
emergency
faraday
149
conductor
##acillus
375
architectures
cran
swcnts
##adeh
evaporative
budget
pzt
ome
aas
c3h8
mercap
hybridized
τ1
imaged
##alum
##orders
##enediamine
##etra
grouped
##wash
closing
imprinted
supplies
conjugates
##assemb
donating
##wc
alad
sep
##atever
560
manage
xiao
seabed
whatever
submic
##ocomp
exogenous
tropical
inefficient
rim
weighing
supram
solidified
intensified
ran
##sibly
dun
provincial
rheology
aspen
kapp
##pace
voltammograms
alkylation
m4
##holes
petrochemical
butyric
institutional
cables
autonom
##icz
breast
processor
copolymerization
undesired
##illing
7ev
titanate
distinctly
stabilizer
utilizes
lps
goods
##oral
##mac
cars
thomas
##−∞
vitamin
cres
sfe
deeply
##orrelation
ξi
positioning
10−7
fbs
hfo2
hypotheses
radionuclides
hdpe
surroundings
333
exempl
##iscus
photothermal
##hx
2t
sizing
scintill
hac
##×106
og
peters
arguments
subtracted
wo
catalytically
##uctions
satur
c2h5
december
cali
vermic
##bach
smec
xd
pathogens
##q3
hyperbolic
supplying
proposition
co32−
suffers
nrf
macroporous
wilson
aerated
consortium
hypothetical
referenced
synthesizing
solvers
##sivities
discip
io
##adf
180°c
weakening
rbf
##polymer
u→
##ilm
assayed
470
##ˆi
labeling
5k
grazing
parag
entrained
organs
evidences
##ondens
multiscale
m2s
symp
routin
annihilation
spacings
polysulf
dmpo
3p
mmms
sirna
regularization
φi
##lock
cukα
##ressing
ρu
hamp
##east
quantifying
##anediol
bioactivity
158
185
##aine
longest
folding
heavier
2×
penicillin
##ych
45°c
ejector
##bles
abc
##high
157
ein
μ2
hat
analyte
presently
triangles
absorbent
yar
fern
brightness
fts
pose
##jn
##olab
##verage
rao
25ml
rebo
nh4cl
adjoint
lyophilized
##oxin
zt
##bul
##ito
methylimidaz
##101
occupation
##−e
posed
ment
##estrial
rij
lsv
##alized
##occup
converter
austenitic
15°
sacrificial
σi
aij
mutagen
fulfilled
nich
ε0
overlayer
vanishes
asa
hydroxylation
580
##aux
##uki
supercell
segregated
ale
heparin
rejected
oxidase
nfs
tbp
porosities
sorbed
dolomite
##emann
s12
dissociative
fet
nitrides
##qus
exerc
##β1
sket
fus
compacted
##f4
##qs
dopamine
tetramethyl
phthalocyan
agitated
##d0
lanthanum
slice
nanosized
bv
olr
forth
fixing
gwp
macromolecular
tablet
##y1
##γ1
stefan
sequestration
##lan
entities
##entitious
##ransfer
colorimetric
dap
iw
semicircle
##∈r
bilayers
##alline
nanofibrous
perturbed
gravel
resonances
germ
jp
planc
##ungs
unburn
570
coherence
withstand
item
8nm
boil
cfs
froude
##2π
d−1
##⩾0
##oreduction
weathering
mnp
edc
ghz
nrtl
##itor
ε1
tailings
##∂c
densely
colors
##aks
stroke
##g0
biop
512
isoelectric
##factor
motif
##andong
purchase
taper
cream
fitc
abaqus
##m0
zwitter
aladdin
pertain
sales
1i
ubi
##heet
u3
interf
ost
mcp
scc
##jt
arith
sque
dpph
coagulant
knowing
lec
cf3
roc
pcms
2017a
##co0
mexic
phonons
##rex
##lox
peek
xanthan
##asive
silva
assimilation
equality
##mr
##ρs
oxidizer
##odel
arom
fried
lowers
##esp
prevailing
rees
vigorously
##ophysical
plasmids
##bas
fang
##eous
exert
##η2
moh
maximizing
chlorophyll
selen
quadrupole
##local
1−2
instrumentation
pitting
clarity
extruded
oligosaccharides
212
imidazolium
fug
##rally
##j1
biaxial
stick
##umid
topographic
ports
cws
glutamic
restored
nco
accompanying
2400
mn3
selenium
supramolecular
discontinuities
truss
actors
tremendous
biggest
η2
gqds
fullerene
pma
embodied
gang
incipient
unstructured
##ωt
ux
kap
##obenz
5e
deviate
##occupied
alleviate
heterotrophic
##kes
1cm
##aus
##ithi
terraces
##otypes
isent
ce0
1700
##ourea
##ylamine
lx
protecting
machined
liner
phosphorous
electronegativity
pillar
gently
##eretic
μ1
phenanth
inflammation
nont
export
stacks
pcb
yk
##veld
substruct
2x
hydrograph
incorporates
wit
##αi
escalab
arrival
fluences
coking
0mg
100g
##osaccharide
##si2
nhe
deacet
##ocat
v4
mess
lsm
##ooh
spir
entrapment
notch
t∞
mz
consolidation
imbib
##talc
zo
hemicelluloses
275
720
visualize
v→
##dong
##imal
##burg
eutroph
recur
meniscus
256
intensification
agro
wurtz
thickening
terrestrial
unified
underne
underneath
##tler
modest
238
swirling
monodisperse
immiscible
##olyte
##acs
δ1
overestimated
urgent
##ycle
chr
ρp
biotrans
##×104
indian
twist
grades
hco3−
nth
##urf
bilinear
coulombic
monochromator
siox
hysteretic
slm
depict
arabinose
kon
promise
apex
##18o
canonical
projections
sab
##uez
ridge
prohib
fertilizers
hydrotalc
323
##rofen
ala
##idinium
##ulator
##z1
spss
##×7
profound
gil
unoccupied
converts
##thing
##rb
capita
cleaved
##gement
cartr
strut
ready
radon
##eners
dof
uas
tis
##≈1
##ivers
##vem
areal
##holds
chlorination
exciting
diffusing
subcooling
geographical
photonic
superconducting
5v
ϕi
usd
##ophenol
dominance
residents
motiv
coals
plans
sif
sought
##tip
kink
tunn
unfol
multifract
sis
anton
allyl
rated
pde
fate
feso4
svm
frontier
upwards
petri
cncs
anthrac
fame
synthesised
fundament
dehumid
strengthen
mpe
photosensi
prere
jumps
specify
wn
1486
differentiate
232
handled
manifested
##power
decent
microenvironment
australian
α0
##wl
transporting
##oney
gupta
preheating
mesophilic
arid
tell
valued
paragraph
pale
door
trichlor
accomplish
ranked
professor
seepage
pcn
legis
sieving
##ricks
##tio2
infiltr
hir
evolving
descriptions
0wt
##kinetic
mutations
imperme
neighbouring
bleaching
ets
##ament
amber
distillate
award
365
##uric
richardson
dele
##ensen
wurtzite
nanofiltration
abat
locate
utilised
ecl
##osecond
ay
##ows
monoc
appreciated
166
refinery
##ogical
##ogeneities
formalism
##tn
breakwater
zigzag
σy
##fe2
interparticle
fuj
vulnerability
angi
stagnant
diaph
alterations
crest
civil
lifetimes
##brevi
3wt
sulphuric
008
3μm
nucleic
deduce
chronic
##vn
bolt
i∈
plasmas
##rofuran
##−11
shah
apc
##uous
intim
coar
geopolymer
biologically
tapping
membership
crossflow
nitrided
impose
##aro
hcn
triglycer
methanogens
political
##cein
dwell
##aram
convergent
390
managed
1°c
hang
generalization
hans
carl
carboxymethyl
##oys
##bac
zncl2
broadly
formulate
1010
##beit
crown
0⩽
baker
##omethyl
pedestrian
f4
aerosols
##o1
assembling
##oric
lots
##years
τ2
microscale
colorless
glove
households
##enever
inhomogeneity
rebound
multimedia
##sio4
nanotechnology
eddies
mapped
permeabilities
shandong
4s
##∗∗
husk
trust
aops
infections
##uchy
625
manifest
hinge
biosensors
histogram
machinery
##istal
##win
##ophosphate
impacting
coarser
##6nm
##romic
odd
gma
tablets
stocks
inserts
∇u
clou
cun
120min
biosurfact
diminishes
159
dms
bottlen
γs
elliptic
##umn
##fter
##elium
−x
ppc
weib
subcritical
##agement
hinders
oxidised
plated
proving
neglect
actuators
sherwood
africa
la0
piper
mainstream
##bu
##atized
substituent
##−τ
signature
cages
##oke
transfection
##doc
##rition
topics
photoanode
prerequ
kinetically
mch
injecting
language
qmax
interpolated
cabin
∂f
whenever
belt
373
2δ
110°c
so3h
nitrophenol
employees
revised
2016a
1971
saxs
snapshots
factorial
graphitization
weaken
tribut
photoelectrochemical
##adt
potentiostat
nanoclusters
slices
glaz
projec
##o5
adsorbs
φ1
##tituted
albeit
phosphates
aesar
autocorrelation
propagates
sharma
rhodium
qualities
##4−
luminescent
##elmer
v¯
initiatives
ken
emerge
dynamically
sensitivities
##osphere
radar
cauchy
##ouin
inconsistent
multid
fle
##etri
intrusion
ultrafine
coaxial
nanoindentation
mri
transit
400nm
mae
bab
scour
niobium
float
immersing
cyp
sns2
resembles
##aran
##acks
arbitrarily
##ensitic
bat
kang
sige
spins
dependences
##roportion
β0
inference
o1
employment
participating
##iture
##alkyl
funnel
anten
aggressive
unbound
preserving
halide
opa
withdrawing
deriving
args
sulphide
fastest
volatiles
tolerant
amend
broadened
177
cu0
6al
314
flavon
overflow
transients
guided
kmn
uncontrol
rectang
##osidic
##gestion
suppressing
resistive
298k
atmospheres
##∘c
interactive
exfoliated
0v
biole
##lyp
interd
cai
kam
brook
##razine
streaming
abbrevi
hou
critically
δq
genera
atomization
farms
##anal
αs
hygro
202
##n3
##aam
photores
anticancer
searching
perkinelmer
swell
violet
mm3
cytotoxic
martensitic
subjective
##unt
hq
msc
coincidence
mane
hj
grand
##fig
dioxane
##fined
smoothed
forecasts
perox
regulator
illustrating
tant
markov
##∑m
arithmetic
hsa
##titution
supernatants
##ε0
po2
9c
smoothly
glucosidase
demanding
aerospace
##uce
##⋮⋮
77k
electrodeposited
##osi
bambo
gad
miscibility
sulfated
outermost
profiling
pnp
nanopl
whit
##4v
pq
afterward
pref
antis
organizational
unwanted
plenum
leds
##aga
phant
spillover
##ele
##⩽0
biocon
dar
peristal
exploit
evolves
2so4
binders
##tw
sli
308
spurious
synchronization
##asp
mars
alanine
dosages
##ysics
##ophenone
prime
satisfactor
potent
habitat
galvanostatic
##diffusion
##fis
lind
##cnt
purple
tails
boe
winds
∼4
cytok
##ρ0
tos
##heating
inflection
trivalent
propionic
##itrogen
##uda
satisfactorily
##dust
ag2
innovations
188
maturity
alkenes
detox
##comings
shrinking
i−1
lymph
assemble
scrap
flowed
192
coarsening
shortcomings
##ohydride
dope
ech
srt
diaphrag
thiourea
aliquot
bamboo
##actone
##ails
mwnts
interfere
gfp
pseudoc
cartil
##∂φ
##wd
skeletal
δi
photosynthesis
×10
pcp
mn3o4
silical
##tisation
##2d
infill
zein
∂ρ
hemispherical
vick
tere
administered
persistence
##coal
coff
fungus
mott
hoc
respiration
conventionally
rtd
penetrating
1q
##ascular
η1
favoured
##rect
750°c
piez
decoupling
ferroc
nose
gk
versions
##izability
surplus
intelligent
disturbed
problematic
decane
fz
##ois
muff
vision
binds
cta
preheated
dai
##vals
kut
marsh
antifer
2×1
stir
226
methanogenic
7000
malaysia
ti3c2tx
seek
breathing
##isations
succinic
km2
nist
linearization
##apunov
flutter
erg
620
membered
zer
isentropic
shelf
misfit
sawdust
dbd
##oglyc
resuspended
mda
fic
characterizes
05m
offering
recognize
drives
captures
investments
evaporate
pluronic
dγ
finds
biorefinery
ores
guangdong
30nm
2019b
##identate
displaying
balancing
##j0
disproportion
word
spiked
marang
##phenols
corroded
chcl3
lumin
mpd
coh
cij
fum
recalc
recoveries
psych
brand
nin
x−
∂z
attrition
##±3
pvt
20wt
abatement
0n
dilat
differentiated
##ecs
##abe
##dis
q3
streamline
ner
τ0
stern
opt
##tidine
##moo4
coding
cellobi
##phosphate
sulfonate
leather
minus
offs
floods
##hk
r12
researched
shortened
kij
thermostat
##alities
novem
dihyd
clockwise
stron
elaborated
terrain
##care
pand
sgs
##wor
3n
##onym
schiff
voidage
dissipative
ces
ding
780
−6
silicalite
##kcal
##umor
augmentation
asymptotically
aden
temporary
##do
accelerator
doubled
recrystallized
##ogy
1−ε
panc
isolates
##stat
##ll
occupant
clogging
##uper
indisp
yin
ptr
minimizes
discusses
u˜
dipping
expands
μ0
##met
spanish
pf6
dimensionality
##h10
stays
november
172
##usions
marangoni
##imeters
nob
chlorella
isob
##uclide
fibro
318
vdw
wwtp
ffa
y3
reboiler
π2
##omel
monometallic
encouraging
intu
transforming
lyapunov
##outs
tas
stator
arrive
##arboxylic
##vr
finned
adhere
god
##gb
wine
ellipsometry
##ensable
##δ2
mno
##tian
10−8
oly
##ecess
representations
##itating
cure
restrained
bread
superiority
brillouin
##otes
tca
finish
anderson
dropping
recovering
##2sin
keratin
randomness
od600
100μl
pearson
pph
##al0
55°c
cord
descending
500nm
peristaltic
##hasic
630
qf
lipophilic
felt
##rative
pbr
20h
2015a
aem
##kc
obstr
trapezoidal
##acies
desiccant
rq
hierarchy
planck
##obacterium
bdd
carcinogenic
livest
torre
ara
clustered
01m
livestock
slurries
questionnaire
0000
barre
mannose
mettler
latest
scn
removes
empirically
melan
relief
uz
##111
biphasic
##bank
propionate
##fen
nimo
δa
multilayered
neutralized
hnts
##inase
##vf
007
deactivated
4th
lda
∂θ
pnipam
reductase
##∂w
electrophoretic
loosely
css
##ovic
convey
dendrite
maneu
coumar
##ago
brazilian
divide
alloyed
dτ
succeed
pesticide
thermoplastic
##ybrid
governance
slos
resolutions
##shed
squee
interplanar
boc
plasmonic
truncation
fibrils
##formamide
strontium
##ville
bao
replicate
##2o40
fell
169
olymp
polypyr
cbz
##ρ2
6nm
centroid
ρ1
arti
vulcan
opens
revenue
2050
denoting
electrolyzer
lightweight
ift
contro
outg
ling
dcf
ldpe
clothing
241
eccentricity
ply
2σ
swing
##romb
2030
vk
liposome
4ml
spati
##ali
epithelial
vulnerable
tetrahydrofuran
##jc
mn4
volatilization
∂∂t
recess
i3
sloshing
##hd
βi
chond
speek
triethyl
##haw
mediator
bark
##aded
##ivity
215
gonz
phenomenological
rougher
yc
tyrosine
proposal
##rometer
##ager
profil
hoff
##umbers
ses
##imolar
lamps
##s0
205
expend
ix
mitochondrial
mab
hfc
functioning
decarboxyl
erlen
dendrites
tong
imposing
faced
##oub
recalcit
##δu
hydrolysates
ended
2018b
suddenly
fibrin
confirmation
##arin
descriptors
coils
molybd
filamentous
cuv
8d
oxo
heterojunctions
##ophan
photoexc
refluxed
clu
##b3
##ωcm
##×10−8
edible
pis
meets
indispensable
cuso4
decomposes
biotin
cartilage
8m
204
∂n
surveys
watersheds
vx
cfb
x˜
##generation
tooth
occupies
eda
##2000
ddt
σt
tecnai
facade
022
##mes
npc
subcooled
couples
inward
riet
##jet
ρ2
abts
caff
ptx
lai
lod
250ml
mts
##arriers
254
##3nm
chiller
20mg
decis
diffusivities
weibull
rheometer
asphal
piles
##ighter
impermeable
evolutions
chick
arter
##acking
imperfections
governments
pretreatments
oac
∂r
##afluor
deflections
##beck
retains
retrieved
repell
cu3
fea
3d3
075
calibrate
libraries
acf
##cl6
terephthal
feeds
##ocyte
bioleaching
ωt
benzoic
synergetic
ρcp
dit
xanth
psc
prevalent
melts
latit
deng
polyacrylamide
subtraction
curie
iω
399
mixes
cheaper
ρi
depositions
cocat
490
−α
lamellae
##mah
n1s
euro
finishing
16h
r13
peptone
jasco
ubiqu
certified
reciproc
calculates
##kk
sls
ict
##rations
±2
zet
agenc
##comp
inhal
##e0
externally
overestimation
exceptional
##dren
miscible
buffers
passivated
5f
##avg
al2
turkey
stall
goeth
geometrically
jar
3600
kmno4
agbr
398
mwco
##ingly
industrially
−f
hpmc
##nr
diffusional
keff
regenerator
dodecane
reattach
##eda
stearic
postdoc
##yf
subsystems
spike
1050
gut
deployment
##obacillus
173
##acid
lope
χ2
hydrochar
equivalents
εs
##ouss
##rote
weir
recyclability
3×3
40kv
beside
##gp
imbibition
realizations
solubilities
flammability
adip
trp
ms−1
bos
diluent
##ppler
30m
expresses
##emi
propagated
glc
x−x
mises
kidney
expectations
owners
gust
distribute
pursu
lopez
oversh
diminish
50μm
lignite
magneto
lasted
vapors
califor
inapp
capacitors
∫0∞
erlenmeyer
σs
biopro
purging
##grou
##emulsions
french
nanocat
dash
embritt
barely
panalytical
injury
##ete
settled
kernels
p¯
≥99
283
traveling
children
cesium
polymerase
##anoate
γ0
pps
##meter
obe
mould
unn
##icates
##lohex
mills
interplay
640
bronsted
cyclohexene
##anthin
dechlorination
##−j
overexpression
680
probed
niti
merit
j∈
##uniform
yp
cyclodextrin
enterprise
finely
molding
∂w
asymmetrical
contributor
excitons
prost
tbc
##μ2
accelerations
collaborative
maybe
trav
ish
cultural
vof
secreted
nov
highlighting
tensions
navigation
merging
##l0
cosh
multist
acidified
##θ1
287
##ochromic
electroplating
experimentation
htl
12b
bess
yao
fermented
##illary
##iy
investigators
inga
merits
ppo
btc
execution
separates
spreads
humidified
ppv
particulates
pullul
asr
##assie
specialized
remanufacturing
explanations
##ospor
deser
mammalian
ag2o
yttrium
seedling
pecvd
##heat
cany
definitely
sorting
##∫γ
dirac
urine
raises
moo2
m2k
boxes
potentiodynamic
pavement
folds
##rock
emitters
##τ2
fans
wavenumbers
cucl2
magnified
sweet
bolts
notion
deficit
investigates
liter
goethite
##reek
piping
hydrogenolysis
##ulfonic
allocated
dimethylformamide
commod
quanta
guan
aided
kat
roy
pentane
inlets
200ml
obey
##s8
foulants
jm
##⩽1
##enders
kindly
chlorides
rounded
resilience
silicates
spong
wher
##garis
strands
bai
disrupted
sharper
sterilization
710
bricks
gentle
8g
valent
valle
irreversibility
j−1
##idis
b3lyp
hope
shortage
qcm
μi
npv
paradig
lambda
flammable
osteogenic
##kary
##oselective
siloxane
##ophy
##ston
disrup
p5
##bauer
2014a
##∂ϕ
20μm
contacted
toled
robinson
reserves
mexico
bubbly
gcd
patterning
postdoctoral
##5o
##tina
##∂η
ems
##ios
##tibility
##opoulos
analytes
##etti
##∫0∞
336
20g
raj
polypyrrole
went
asperg
##y0
##qm
deletion
##nh3
shel
operative
storing
bx
gastric
176
biomaterial
##2a
##aired
instructions
substitutional
na2o
eliminates
earthquakes
logistics
gaining
##yprop
transistors
vulgaris
disag
ppi
fau
exchanges
rooms
inulin
##alez
45μm
vii
detergent
aob
##olding
vane
batio3
conveniently
pillars
ym
hydrom
webs
##lity
##jing
enantioselectivity
##qr
suffered
specular
consumes
##ska
activator
cigs
lau
heads
laminate
storey
ϕ1
saccharification
pinning
9ev
rhomb
##−5
brad
##tizer
byproduct
lignocellulose
θs
biotransformation
czts
egr
determinant
solves
ross
2α
federal
##ocytosis
joining
anem
grit
nanohybrid
##rotene
##vb
thio
##electronics
stp
bure
##tb
pertin
metam
gonzalez
doppler
denom
g4
sut
xer
##illa
uncover
olympus
cloned
reh
mns
ghsv
##balanced
maldi
digestate
textiles
##analysis
##ometrically
implicitly
maximized
underestimation
670
##economic
extraord
##js
asia
##loxacin
ssz
hydroper
tryptophan
decisive
methylation
microreactor
##inities
##idyl
ambigu
fruits
degenerate
permitted
monoliths
##sr0
##onymous
electroactive
##eli
##j−1
initiative
##strom
eutrophication
incorrect
stringent
rietveld
2e−
zhe
abiotic
determinations
burnup
stabilizes
ethers
mose
salicyl
lives
unidirectional
propp
automob
adherence
doubly
germanium
lorentzian
184
##linary
##ocene
ta2o5
182
hepat
ont
sponsor
tetracycline
φ2
chry
##wald
70°
carotene
##actic
13a
cvs
perovskites
spind
##3a
designers
gard
529
r6
adds
leuc
##meas
511
pak
diffuses
gor
dewatering
methacryl
cargo
2γ
regularity
reproduction
encourage
gox
mocvd
d50
mother
teg
##elting
##cip
associate
cst
california
##irradi
neuron
assure
smear
##ch2o
prompt
goodness
obl
7nm
regenerative
gnps
farming
prerequisite
biochars
1969
##otri
cary
fetal
scarcity
alarm
backscattering
brass
syntheses
##feo3
tantalum
octanol
##tenes
214
alex
stops
stakeholder
occasion
jw
##in2s4
##vie
##iable
##elve
##adian
rew
##ochrome
hexahydrate
freest
sensitized
533
##je
##∗2
fugacity
∂∂xj
pamam
meg
##erce
##icidal
metallurgical
aware
##orov
ree
damped
rodriguez
##kbt
carries
300nm
##6al
khan
oval
209
emergy
toledo
##agi
jia
hydroxyb
aspergillus
##amoto
##lt
collim
decont
biosorbent
##olecule
borate
solder
δθ
emerges
sanch
synthase
cytoplasm
thios
##odium
ponds
meshing
nadph
reviewers
replication
fibroblasts
##ilibrium
achievement
microsphere
##lexes
absorbs
concentrates
christ
azimuth
##orf
stover
##cx
##inally
##foam
##wp
##qn
grounded
transversal
files
pea
utilities
2017b
bioprocess
anodized
marginally
twelve
##4π
dione
##ressive
sulfoxide
##δh
biomim
##otides
embrittlement
##wf
fringe
octadec
biofouling
kre
borohydride
multiplication
summing
##anner
buoyant
##fish
marks
vickers
##−g
dangerous
hrs
diffractograms
progresses
q¯
refrigerator
skewness
oxford
500ml
##ixing
cubes
manager
##akers
lysis
equimolar
elm
sensation
haadf
##900
pbo
228
acrylamide
##jj
sonochemical
573
gnp
5th
dess
flushed
##vg
fronts
roller
glycosidic
exploiting
sib
2°c
solubilized
spores
flaw
mn2o3
transpl
973
unamb
##pon
dha
hydrotalcite
hardware
decide
preferences
216
translated
suz
nonuniform
beck
impar
pfoa
##mis
idealized
smectite
silicide
αh
advancement
voltammetric
benign
lle
λn
ccm
ingredient
poses
shin
65°c
dendrimers
lbe
unambigu
predefined
presumed
sri
##→1
nonlocal
mie
airborne
lumen
outline
organos
fragility
separators
swarm
##via
argin
lived
extractive
11c
##u¯
##illers
carbonized
portfol
##x4
minimise
λ0
superscript
10c
pscs
zeng
uasb
bridged
ecs
flag
##ga0
##sky
##xl
concurrent
addresses
butadiene
flake
epid
caf2
2i
wak
##omo
bags
##utors
nico2o4
checking
adherent
typh
pyrolytic
cpt
##acyl
εr
plugging
paired
pon
enforce
encounter
dealt
conflicts
##asic
chir
thirdly
interatomic
##aughter
femt
cdl
nem
29si
invasive
ahm
excre
##mixing
##hb
##zt
##titudes
−c
μc
##xk
hvac
hela
bump
∼20
pertinent
coexisting
kub
dm3
spans
willing
prismatic
##org
scavengers
concurr
##thiophene
saddle
ablated
##φi
thankful
unnecess
bulb
epider
microplate
viruses
sepi
hopper
peculiar
parameterization
catalysed
brus
microcrystalline
c14
triazine
fret
coincident
copy
425
##annon
collapsed
##∂ψ
##⋅∇
appe
apsusc
weakness
##avoid
##hoff
dppc
u∗
perez
identifies
bcs
banks
corroborated
##osting
thousands
vanish
qing
sanchez
pushed
complexing
435
axially
−a
gdc
2020a
cep
7mm
plasticizer
furan
∂∂x
logical
iro2
poorer
boat
spm
##available
sky
monso
40°
coffee
slowed
δε
drilled
agencies
##tide
retarded
merged
norms
##ela
##zsch
473
nonionic
zk
v5
opposing
##adaic
radially
yv
spacec
tempo
t6
nafion®
za
bog
231
##erators
208
021
preferably
mscs
ampo
diamine
##λi
hss
##ghz
microplastic
##yltr
##fg
##anase
1≤
−r
zc
##gery
##alloy
passenger
##zr0
##icking
ath
m2h
hospital
##ρv
##away
tfa
##ϕi
##−6
anom
unavoid
10cm
##d3
dipped
##ico
nitrobenzene
supplemental
warp
516
90min
##apore
sulfite
##frp
760
deline
eva
jk
contradict
partitioned
emulsifier
mox
bidentate
clostridium
wwtps
joule
1967
polarisation
##onyl
##otroph
δw
δ18o
##chem
##amyl
ic50
eels
mov
stably
loses
inaccurate
zhong
overpressure
iteratively
subspace
dofs
serving
##chen
zhejiang
##facts
woven
roasting
looks
sandwiched
martine
sip
##6a
trifluor
mose2
iridium
##ω1
clsm
##book
40min
microfiltration
graphically
li2s
##oh−
pfc
phantom
optic
portug
ode
ignoring
forb
interstitials
dental
##cnts
##xz
superheated
##enda
850°c
depolymerization
##etall
nutritional
floors
sav
imported
disrupt
−e
smr
##4n
178
intergranular
##122
##oder
homologous
##ω0
vel
flushing
2013a
premature
673
productive
elevations
conveying
forests
zp
2200
nurbs
ni3s2
autonomous
decentral
faradaic
usefulness
15mm
photoactivity
1965
##1a
lcc
##heim
laterally
##ineries
continuing
##ettes
belg
aluminosilicate
argue
vanishing
##4f
biohyd
signifies
blanket
##agnetism
##ocr
2016b
dmac
##aggreg
nse
hed
gis
deprotonation
infinitely
hump
evs
imine
adopts
disaster
bi2s3
wetness
houses
withdrawal
##liness
shir
9h2o
england
unburned
nanomaterial
cuts
afforded
roofs
drained
harder
titer
febr
25°
oversho
514
repetitive
eor
##2o6
clones
hydrology
truck
186
##amycin
perchlorate
unconfined
ascending
routing
headspace
radioactivity
##block
combinator
2cm
icorr
##bec
asphaltenes
##icol
mcr
##105
hrr
##moo6
chu
expansions
kutta
∂c
mortality
simplifying
##cont
commercialization
azide
dendrimer
guarantees
mlss
tyr
interfering
##alite
octyl
##onene
pxrd
pins
spanning
##q0
nhs
ue
t−τ
davis
exhausted
1250
##bridge
muffle
imperfection
boehm
171
minority
modifies
##ranched
##ubes
horm
serpen
b4c
aao
eigenvectors
biomimetic
hps
endo
1968
martinez
deoxygen
ultrahigh
dampers
physisorbed
msn
htf
rendering
distortions
excimer
waiting
calomel
##abric
##annel
##k3
rha
##∂f
##anate
gelling
sepiolite
waveguide
uav
percenti
##ν2
##precip
c9
optimality
cdna
exchangeable
ripening
6e
bouss
##okinetic
destin
combustible
overt
##lass
interviews
##sw
biphenyl
009
nois
−λ
sandy
adversely
10000
##inski
ducts
δk
opaque
annually
pmax
##requ
##omics
gelatinization
rx
vib
ashes
deteriorated
##kins
dialyzed
lithography
antimony
austri
transgenic
nova
sdc
dθ
optima
##rep
textures
##dea
cyclopent
##inin
315
alcl3
arh
horiba
deviates
uˆ
−t
##μa
δσ
desiccator
submicron
µl
subunit
##t∈
−β
##iced
meh
transpiration
herbic
ecsa
compiled
undoub
##bi3
principally
colleag
##arr
203
224
##inesq
charcoal
irradiations
pdos
undoubted
thromb
013
x∗
∑l
pneumatic
fermentations
shocks
##ucl4
σij
segmentation
tnf
biorem
245
serine
learn
towers
monovalent
dipolar
dump
sak
sapon
##7nm
portland
##oprotein
projectile
206
h2o→
##flower
protrusions
ρw
meng
##uer
restrain
imbalance
csa
##ohed
nondimensional
bcn
##×103
germination
##ipi
heterologous
f127
##body
##orosity
##epit
interacted
##ochemistry
##centration
incentives
cogn
polyphenols
##∼0
refraction
##amines
pocket
survive
fermentative
sands
9h
proportionality
supplementation
hrms
ch3coo
extractions
february
25μm
alm
penetrated
dds
hexadecane
versatility
1100°c
galvanic
spacecraft
kinase
##dn
patent
cresol
decrement
02°
12c
proteobacteria
boussinesq
kun
k∈
3mg
1ρ
pathogenic
subt
sympt
eads
superlattice
succinate
paints
generality
spindle
delivering
tracked
feg
beer
recalcitrant
ticl4
shutdown
tpc
stom
##otherm
60s
orp
worthy
##depend
174
##tificially
η0
feel
inaccur
undist
artificially
ruled
10k
##icities
−n
atomically
##omyces
##δv
saved
ρb
tpo
x4
steeper
anonymous
##itory
caso4
##ailand
packages
surf
recons
pseudop
hardened
b12
dbs
aac
settlement
##ondensation
denmark
hydroxyls
unequ
oms
p123
analogue
globular
##solvent
hyal
##vic
biases
initiating
bpy
##esters
coin
suppresses
4f7
m5
floodpl
##orrosion
arms
chan
mont
smoothness
quadrilateral
##ellar
##mx
tib2
##mean
hcooh
er3
rotate
tonnes
dome
##ths
ti6al
##var
carp
wan
thailand
outliers
roh
−ρ
anomaly
##eras
##bel
coiled
npp
buy
sedimentary
diaphragm
icr
thermometer
spc
fluoro
##apes
antenna
biotechn
nanopores
restitution
leaders
lifting
##port
encoded
kirch
##ystems
fad
misorientation
p6
##imine
aluminate
1950
antiferromagnetic
##feld
maneuver
enlargement
imperative
combinatorial
ejection
czech
compressors
lubricating
##tise
cocr
multifractal
chapter
xx
meal
rectangle
##002
##achrome
187
n4
vbm
##i3
kaw
−∇
fsi
intrinsically
diol
pastes
##lett
barrel
##zs
##br3
uncontrolled
amended
undoubtedly
dab
kalman
fluorite
##mog
2015b
admissible
wj
773
hots
illite
durable
fct
startup
##virus
dissociate
ibup
pancre
1540
##μ1
∼100
exiting
610
competitiveness
pir
icing
subunits
glutamate
attracting
suzuki
nanosc
##˜1
underp
dmd
singapore
methanogenesis
pd2
retailer
##pk
restoring
ingot
ejected
k¯
##ethanolamine
##pv
ph2
sigmo
##ropri
##opoly
featured
zb
shortening
o−
##γi
acn
pyc
±5
zwitterionic
riv
pertaining
##lood
buffering
nonpolar
femtosecond
nh4oh
downwards
muller
runge
exercise
resc
oligonucle
arginine
##entional
heading
propellant
nucleotide
tetrahedron
##equilibrium
cellobiose
t5
variances
ventilated
pools
ethene
corrugation
##c4
origins
reflective
lpg
tmd
tecn
directing
##enses
kas
biodi
deionised
midpoint
cpa
economies
312
reliably
050
sich
biohydrogen
zetas
oily
##∼1
soda
restricts
tile
la2
ethylbenzene
personnel
ϕ2
##se3
hotsp
krig
foulant
utilisation
znfe2o4
boilers
defense
electrophilic
≤0
##ogenetic
εi
transcript
##φ2
justify
##cosh
opinions
dissimilar
ibuprofen
conformations
nih
ecb
internally
bioenergy
##sulf
##ethoxy
r¯
tgo
gov
diminishing
ahp
kron
τi
removals
##δs
losing
##5a
qb
spacers
σn
1−1
tensors
bromo
invitrogen
tomato
naked
ppb
horn
trench
remarks
mpeg
1hz
nguy
##qing
401
##uber
##olate
φ0
ferri
mirr
supersaturated
##atos
harmonics
0002
declared
sort
αk
mmp
dys
proceeding
30mm
actuation
pyridinic
profits
lz
wg
peaked
2j
##zero
flank
carbazole
disreg
wings
mcd
antioxidants
016
labels
ics
diversi
modulate
epd
tops
spun
leica
spectroscop
207
colleagues
proportionally
##hydrox
tellur
40ml
letters
speculate
sublayer
nguyen
diagnostics
##osorb
zetasizer
##h7
##∂τ
edax
polycarbonate
##stra
cartridge
dyed
rca
##plane
litter
iq
punch
unnecessary
shannon
cos2
zircal
biodiversity
hsc
−i
boric
rudder
##aring
ntu
isoc
interch
outlets
monsoon
##ardt
glucos
windward
dietary
coprecip
gps
alters
weakens
ordinate
f→
##acol
slows
##accharide
triphenyl
resemble
chl
polymerisation
ssp
1964
inappropri
##˜2
keith
sul
spou
tco
twins
s2−
wy
planted
##rus
12π
rcp
301
backwash
methylimidazolium
assets
ineffective
electrospray
keto
bioremediation
overcoming
adjustments
interception
retardant
wong
associations
entanglement
##cod
ips
appreciate
lani
thousand
atrp
##tage
renders
quantachrome
sunflower
vaccine
980
journal
##∈s
slenderness
unim
##×10−1
ect
legen
##ached
##fiers
nations
##ialysis
δφ
bearings
##∂z2
silt
181
functionally
fla
condensable
zeolitic
pedestrians
##mn0
ti2
radionuclide
ti6al4v
##pert
abundances
cq
##ju
ferritic
hsi
##ilin
subtle
gastro
##quid
14c
quatern
receives
drm
183
dξ
crystallisation
chromosome
reductant
##−π
scod
kgm
narrowing
##orters
linkers
##o2−
envis
##∫0t
##gy
18f
mcl
karst
dca
polyelectrolytes
impair
catalase
##ωi
rectif
r134a
jt
delivers
reflector
zm
concluding
213
##×6
##±5
practic
era
ots
353
##bow
circulated
retardation
seam
compactness
digesters
legislation
5mol
−h
4mg
dij
shading
##rocessing
enhancements
590
##eted
stayed
600nm
deployed
reattachment
gab
debonding
##absor
dimple
kgy
##aphyl
pulverized
ipt
##102
3j
##iscid
isobaric
phill
cct
safely
worthwhile
##repr
classify
continuation
##×10−9
mack
uy
capillaries
mfs
propensity
alkene
ignited
fap
resisting
##5cm−1
deacetylation
hig
##ipe
##ovich
azeotropic
hcc
cow
incur
bacteri
−q
qj
##iciencies
aminopropyl
shares
193
u∞
bottleneck
##encia
040
##hai
sessile
tsi
mpl
##xc
knot
δρ
##mno3
kriging
fda
asf
froth
##hlet
hema
print
##axanthin
fuk
absorbers
molybdate
cyanobacteria
prospects
##enoid
serpentine
pacl
##nik
##jee
bou
##∂ρ
zircaloy
mediter
stepped
inviscid
anomalies
poles
microbub
##∑l
rah
ppp
ribbon
abruptly
acclim
ferrom
##iazole
carotenoids
pth
##1t
cot
pmo
swnts
mω
##rid
blot
cytochrome
d5
lone
anh
31p
maturation
favoring
##iscip
##∂s
##dew
verifying
hydropower
##imethylammonium
extremes
15ml
adam
expose
pink
pollu
chars
logs
##rov
chx
histidine
hosts
hes
tol
subdomain
transcriptional
accumulating
srb
ecorr
αc
adult
valleys
converging
gbs
4μm
brake
raff
##irradiated
##θi
ncc
adduct
##jd
restore
tcn
avoidance
downc
paradigm
interdiffusion
nanol
director
guai
organo
crosslinker
poul
289
hygroscopic
trying
##uo
molasses
odor
pulsation
soxhlet
elap
##ϕ2
morden
kolmog
phthalocyanine
##accum
295
asset
gns
truly
hindering
extraordinary
##iva
2h2
##vac
6ml
wealth
duplex
anodizing
decoupled
correlating
doubling
fps
##ranean
hkl
pcbs
heterocyclic
##oscopic
plut
bi3
1990s
sorbitol
cyclohexanone
tether
eag
csf
tetrachlor
john
appreciably
##sto
naal
##ello
phenotype
##glyc
∂φ
maleic
russian
imide
arcs
sold
richness
2020b
documents
vesicle
rabbit
excel
iz
multipliers
yun
gcm
95°c
25m
sixth
##ensing
refrigerants
irrig
equiax
imperfect
##berts
selling
bi2moo6
##×m
pta
bang
doubt
professional
14a
##ethiol
ρ¯
intuitive
f¯
##yang
255
cupc
4800
netzsch
saccha
##redic
160°c
healthcare
calorimetric
zd
##tri
sah
cole
burnt
command
phospholipids
##vised
antit
kyoto
mutually
plenty
a−1
milp
γn
tendencies
a12
##tida
−b
replen
jam
wk
luminance
inund
certification
authorities
localised
##iskers
glcn
##una
##xa
pressur
##ught
nife2o4
200kv
homopolymer
tnts
tiles
scalable
αl
##ativity
redundant
diox
##agner
delign
unfolding
tailor
remin
pentac
poland
finland
k2hpo4
detoxification
σr
hess
4wt
##ovascular
coupons
andre
histograms
electrod
spectrophotometry
233
enforced
ubiquit
cyano
so42
cfc
segmented
vacant
kno3
##vs−1
ρm
##eve
chromophore
photoelectrons
waxy
beach
fouled
swat
characterise
sine
nanoplates
ηi
mmm
##rocytes
##omy
15m
hoop
disposed
superhydrophobicity
3l
bib
dick
roads
abe
agi
##poles
nexus
disagre
##ohedral
##ye
diis
decoration
los
##silane
dishes
occupying
##x∈
1¯
tat
hopg
kz
vegf
labile
participated
−p
##yner
continually
15a
resolving
merge
japanese
analogues
validating
maa
organisation
##weed
##cz
br−
noisy
avi
pwr
chromate
035
flor
discrimination
##factory
oi
nh2o
dsscs
##zymes
hydroxylated
locking
030
ingaas
deteriorate
##totic
800nm
stripes
b2o3
ψi
##fin
1980s
maximization
encouraged
##ollo
interdepend
superhydrophilic
gemini
micrometers
absc
polyol
denitrifying
##tdt
##ni0
swept
dal
##opsis
##2nm
a6
nrr
nanopow
sid
##≥1
sinθ
brew
streptomycin
occasionally
h¯
nitridation
773k
##amper
triggering
rog
kiln
##−η
##alanine
atps
mineralized
50°
oleds
differentiating
##chl
flap
degradable
wagner
dsp
tetraethyl
##anic
primitive
depressurization
proppant
##te3
switches
sensory
lanthanide
pricing
routinely
pickering
335
ration
3v
x˙
##arine
decontamination
splines
atomistic
nm3
doctoral
##rants
wv
sf6
injections
staphyl
geochemical
virtue
hts
inability
nucleated
tunnels
znin2s4
foundations
2012a
initialization
leew
causal
santa
∂ϕ
##total
attacks
exo
disproportionation
nontoxic
λs
20s
fortunately
a11
reasoning
hre
fog
εp
∂ψ
mop
nanjing
pulling
creek
##omorphic
elisa
probing
yearly
coercivity
einstein
autotrophic
spallation
phage
fernandez
halo
phillips
money
µg
msns
cej
##functions
nonm
laminates
##pcr
connectors
##∈v
2β
±10
acros
undisturbed
##ixi
declining
##illar
10−9
swedish
recurr
locus
##lb
##omechanical
1020
siem
1640
shorten
docking
##rolactone
coo−
dib
pco
lasting
σx
n→
worksh
cycled
##how
latitude
unavoidable
∀i
##uclear
ez
−8
female
∫0t
fep
receding
##oglu
phospholipid
concurrently
transloc
aot
autumn
underestimate
gcn
seldom
biosurfactant
5hz
formally
hdo
bak
lhs
##rost
poros
biocatalysts
damaging
digestibility
pendant
##orst
photobi
equivalently
##lav
engineer
kolmogorov
parasi
mrs
recipe
exits
gasb
tetrab
hansen
lifted
legal
judged
##atil
whatman
leader
guideline
cnpq
##2k
lcst
lich
transmis
symmetrically
pyrex
##upp
pyramidal
lco
aldol
attains
##access
0nm
microns
##robe
##ussa
twinning
##−φ
setpoint
##eties
dibenz
heteroatoms
##eptides
opc
planting
phpzc
resting
mediterranean
##uclidean
jointly
crank
older
benzoquinone
unsatis
uw
shore
018
2014b
viscometer
hpw
judg
tapered
ntf2
##103
##rapping
2λ
reorgan
##dna
extingu
2w
pelle
218
investors
960
aside
drawdown
##hh
tsp
##ophenyl
arsenate
r5
pst
ending
jose
221
worm
disorders
completeness
##aq
divergent
italian
amplifier
mitochondria
fsp
flamelet
facies
##atching
raft
fram
euclidean
talents
monohyd
legend
attentions
diamonds
##254
hydrol
varieties
fundamentally
cru
intrigu
zrn
##etr
oleate
873
courses
mossbauer
alf
pest
portfolio
inhalation
105°c
invasion
dst
−80
σh
osteoblast
##104
179
calorific
dism
strou
hydrot
mct
##hua
chung
sofcs
proteases
##oglobin
boun
cuvette
mordenite
nanocrystal
chong
1n∑i
##sel
iga
cattle
nsf
##specific
∇2
joyner
##orescence
##1n
##mel
marke
pulsating
##nut
nitros
305
##olv
αn
qk
cfx
cnx
brace
014
hul
191
##obically
##lay
##ecd
##erature
kinematics
credit
paw
##aromatic
7h
preced
cfl
downcomer
ising
contactor
playing
xylitol
reconstruct
##iment
##00f
sway
stabilised
##rals
##8cm−1
405
bluff
volmer
erd
239
##etallurg
ingan
unreal
grash
incubating
1200°c
leu
alongside
−30
189
electrokinetic
rankine
baseflow
1966
debate
daylight
##z0
denominator
##assembly
hexam
lath
##ellers
hydrocycl
relying
dough
zj
darker
##isciplinary
blind
consolidated
nif
mtbe
permsel
27al
acetylation
##ε1
200mg
unders
pct
##¯¯
apple
reducible
dams
##30cm−1
ida
##br2
assignments
keithley
cofactor
centralized
mobil
approximating
kad
designer
−7
bromine
dα
pome
3−
##lr
18h
simplifies
delhi
recal
photoexcited
30wt
hammer
ncm
flume
##cell
hexyl
tok
beamline
reinforcements
synchronous
140°c
mutagenesis
hiv
glutath
halides
skills
aad
gpu
##×20
aci
ecology
##fem
sweeping
##titious
##≤t
photom
7×7
chicken
##orub
obeys
reserve
##gel
##akr
co0
##o42−
sulfonation
rhs
na2hpo4
essence
strouhal
thrott
kobs
yeasts
chalcogen
photoreduction
4500
disintegr
##oad
355
tcr
degussa
cope
234
alga
pph3
unsuitable
photoelectric
classifier
omega
candida
surg
sper
##antation
∼6
devised
epma
stiffened
oe
5n
##arman
bean
lstm
##conv
joined
sbs
simulates
##ample
algan
characters
polymorphs
##yj
ipp
##ubstituted
1963
galactosidase
siemens
mlp
descent
##transfer
mik
kraft
morris
ori
reconstructions
canyon
stepping
##encil
forbidden
rmax
##mm2
degassing
glutamine
controversi
jung
##∈n
##rk
hung
pioneering
beet
centrality
unirradiated
995
proline
bh4
m¯
##fu
740
tcc
##m−2s−1
rdf
cosme
##ro3
folded
directive
discussing
undergone
biosynthetic
modifiers
barrett
nish
sih4
mobilities
verifies
##ief
extensions
ρd
sampler
purs
hug
1α
τc
##ocarbon
194
223
turbid
sdbs
hew
thermostatic
##lf
pinned
absorptions
−ln
crossed
boehmite
200rpm
stabilizers
trich
##ppi
born
hsp
indications
equiaxed
3400
laden
##03
phd
bactericidal
vanillin
137cs
thym
iup
##utely
sinter
procured
227
mss
haucl4
##δij
emulsifying
seeking
##process
plutonium
dbp
walking
##oking
bisphenol
fgm
incid
elaborate
ϕ0
spor
##ellan
stimulating
##glycer
ti0
rainwater
5mmol
iu
mandatory
sts
putting
1ns
excav
c22
ask
fictitious
##ˆ2
##leting
chrono
asked
##fe3
##omfort
bile
echo
copies
rve
265
spalling
euc
processors
v˙
distinguishable
diluting
dispersant
culturing
bot
cytokines
##pw
inactivated
rolls
metro
parasitic
##har
phosphors
##eneur
cli
anthocyan
##issa
7g
40nm
##ussia
c20
glutathione
##lg
1970s
hydraul
nds
needles
##rij
thermograms
##haz
substitutions
starvation
tracing
##heimer
ccc
2011a
bcp
##ercetin
lacks
overestimate
##anov
shoot
p2o5
profitability
mpp
penta
chromophores
grashof
##⋅n
instantaneously
azeotrop
scm
necessit
cosmetics
cte
##phal
pdt
##oka
decaying
electrochemistry
wer
w3
lk
suggestion
##ranging
εt
logging
phas
informed
σc
photodet
simplifications
##initi
##ecks
dcc
pm10
dmfc
establishes
alq3
tio
1961
chand
ellipse
rpv
phenanthrene
cf2
ellipsoidal
1mpa
##bj
##dθ
690
chilled
seebeck
octahedra
meantime
##uing
accommodation
fluidity
official
dyn
##ρc
dcs
dealum
fbr
−v
magnifications
recursive
precast
ocv
dipoles
dehydrox
##activate
##atid
##gard
explor
infinites
uniquely
ωn
mgl−1
tumour
please
eventual
agreements
pairing
amd
##ulfonate
grassland
oo
sang
tailoring
dul
##lip
polycondensation
##thermally
smol
pastor
c6h5
##drug
##osp
##ˆ1
##intes
virial
regi
traced
mathematic
graduate
##uitively
sinh
##eme
recirculating
##mbr
##o4−
ams
##orrelated
halenda
ages
##imidazole
##inarily
wrong
tmb
##wm
ν2
northwest
nai
scho
##berry
##oac
governs
##optotic
appli
leeward
kcat
substitutes
##amming
##utyl
diatomite
∼50
trifluoro
overheating
hec
pyramid
unrealistic
subgrid
monosaccharide
dressing
xas
college
intimate
cocon
##120
dae
players
515
deoxy
##no2
russia
quercetin
mitigating
decarboxylation
coms
zn0
geographic
##heated
673k
tracers
##ptivity
75°c
rop
biomark
tourism
0k
unifac
otc
ooh
surgery
αt
bringing
omc
collectively
##was
tetrahedra
conductors
pba
sob
θc
##ξ1
200μm
##intestinal
bms
brevity
rhombohedral
mineralogical
q4
272
##mus
##isen
nm2
##xm
lever
asn
belonged
practition
dre
##ativ
barley
##tised
caution
1350
1β
revers
017
penetrates
−μ
intestine
hydroxymethyl
dsa
##ype
nonzero
bounding
biofilter
vegetables
setups
entrepr
##usive
bsc
bioconversion
nta
gastrointestinal
s¯
γc
triglycerides
##penet
landing
##t−1
imagej
perforation
0±0
authority
##aminated
fibroblast
##ravity
##initial
lange
##mpc
inappropriate
##ofuran
assigning
##fj
2o2
issued
regenerate
clark
jing
##melt
shortly
−γ
##acoustic
bod5
pyrrolidone
conce
constructive
chaos
##orubicin
cave
spectrophotometric
witness
storms
interlayers
u−
al0
lmw
xh
ionomer
cpp
cassava
hin
pseudopotential
atrazine
pursued
##u3
023
intuitively
hypochlor
landfills
##unk
##imed
δ0
##iong
limiter
##cells
recommendation
uranyl
rebar
entrepreneur
##pyrrol
mwh
cnn
##ucted
osteoblasts
scintillation
##ropol
mend
##iana
##fx
##octane
hydrothermally
40mm
##hof
immobilize
sro
discretize
##mentioned
asser
santos
lond
1150
baths
retic
responsi
##pic
cloning
s13
climates
stan
0hz
ferrocene
hso
prospect
##ρ1
automobile
σ¯
flooded
##ults
decomposing
##insic
microplastics
bps
anthracene
microcracks
dichloro
curtain
##ulite
##×t
##4cm−1
devel
vortical
1−exp
reviewing
y¯
5mpa
flang
##riptive
glue
b5
expenditure
biotechnological
meshless
flowsheet
subdomains
hag
quinone
##prints
dimples
catast
dehumidification
interrupted
supra
constituting
qg
uniquac
gat
pullulan
cofe
##ishment
tackle
conflu
behaved
217
##wal
marketing
managing
ba2
nitrophenyl
##igo
##amides
nanocrystall
cameras
gx
vy
roughening
##zadeh
accession
screens
turbo
##veness
##iloxane
##enter
felds
znal
distinguishing
##etries
guiding
nonlinearities
substructure
##∂q
##abi
##soil
featuring
book
salmon
##mar
##v→
##125
spore
pairwise
thiosulfate
monosaccharides
kob
lute
1x
dec−1
##dw
##istance
aband
343
##km2
tpu
len
nsfc
248
limonene
maker
iupac
1mmol
nbs
nil
allu
hertz
15°c
optimizations
mep
degrades
overlaps
ethylenediamine
abovementioned
dss
xue
chronoamper
10−10
##eads
##aler
decentralized
##bei
cyclization
pcd
reproducing
##oulli
stamp
##psi
##oleic
2013b
vuv
ωs
ene
##weigh
##ξi
mannitol
dryout
belgium
nanocarriers
ecr
recyclable
magnetism
thermostability
bernoulli
ubiquitous
vv
och3
##106
##uma
##ilinear
525
sulfidation
recuper
polysulfone
otus
tanδ
##igan
him
clinop
840
lob
polyhedral
incentive
∼30
cocl2
upreg
helic
installations
mish
extrapolating
##ocs
##insky
putative
##seed
laid
uhmw
##φ1
circumvent
interpenet
shri
sponges
##alact
264
δλ
topmost
##nj
cheese
stripe
cardiac
complexed
radiolysis
dinit
αp
chn
8ml
≈0
cspb
##vae
decarbon
octahedron
coconut
distant
torn
clinoptil
deformable
transaction
bax
##uvite
suitably
pfs
jω
contradictory
devol
aems
##sey
shuttle
seedlings
msd
dilutions
vag
##w12o40
manipulating
##ρp
destabilization
holistic
dvb
wako
ahmed
technically
##encl
enantiomer
travelling
liquefied
conforming
tobac
sse
20m
423
pacific
phosphorylation
mcnp
rehyd
bl21
subsets
dmax
bij
optimally
swnt
redlich
staphylococcus
inconel
qx
##encaps
behavioral
##produc
timescale
surgical
things
hydrolyze
attacked
##yrins
apoptotic
##igenous
##urnal
ppg
4cm−1
##rj
##rae
uncoupl
##113
mediators
coalesce
pockets
bde
na3
dispersibility
deprotonated
vsm
microporosity
edl
inch
shaded
hydroge
struvite
indole
ilm
μb
mls
##oldm−3
sij
##econds
elapsed
hph
struts
ag2s
##tleness
borne
purchasing
4n
400mhz
slugs
fluorescein
##oshi
##sile
reject
engagement
interruption
δμ
bfo
hood
catalyzing
roberts
epilayer
peeling
brittleness
emulsified
##iga
flowability
glycosylation
##uw
trains
antitumor
cosine
##utin
stimulus
0×10
lspr
aeroelastic
bureau
aib
sinx
cbs
sight
concludes
adhesives
pbo2
microgels
rz
passages
shenz
triaxial
elastomer
3k
tobacco
vz
perdew
α3
neuro
subdivided
crosses
mek
michaelis
county
hexafluor
hexene
##rides
girders
kra
nasa
##h12
##idic
229
tot
univ
neutrality
saturate
##ulsi
triethylamine
acetylated
tao
iep
##∇t
sports
##iveness
inks
##ionine
sponsored
arth
3dom
london
plex
∼15
ψ1
##enchym
dispar
8mg
dac
6wt
trays
bap
doesn
##ucks
buch
flowrates
dictated
tialn
inductive
spikes
subsidy
θr
ϕn
clc
8wt
##cine
pathogen
tph
ern
diabetes
raph
flavonoids
yol
la3
##ilus
6mg
##onia
everywhere
##arez
polyphenol
kirchhoff
euroc
thorium
antagon
aval
haem
overshoot
flowmeter
riparian
stormwater
100m
analyzes
130°c
floodplain
##aryl
polarizability
rsd
sorted
50m
4−
sevent
236
##fluoroethylene
deceleration
ρa
σ3
pulled
chrys
cryo
ampoule
γl
##anda
##amy
plugs
##omann
##≪1
expander
deminer
shenzhen
beg
anns
##accept
13b
dtt
##uille
##cov
ωk
##stones
phosphine
unbalanced
##∂t2
chemil
cascades
##crit
escap
##ˆk
bse
crystallize
accumulates
##05
brackets
desor
##esting
##ucker
catabol
fluctuates
aquac
interventions
endwall
daughter
024
frontal
pfos
comsol
eα
##cro
##150
##omez
##him
1−p
internet
phosphatase
sms
μf
oryz
hclo4
epp
##exts
reed
waveform
##ecker
volcan
glacial
caffeine
##sf
mines
warning
hach
δij
##6o
k12
mall
feldspar
fcs
ipcc
##20cm−1
commitment
##ocarb
realizing
coater
4k
gfrp
austria
##menting
pemfcs
##acer
##δy
shots
alternately
##shows
##rooms
attaining
recoil
associating
mib
##zno
pyrolyzed
weiss
cdf
μm2
dfa
delib
helping
##tk
evaluates
exerts
nord
std
comply
##athode
4×10
cardiovascular
##carb
decor
fes2
rbc
ipn
yosh
bins
##zd
recession
cocatalyst
bode
##olia
insect
aft
278
peening
extrinsic
gomez
##222
plun
korean
oppos
tilting
carboxy
##deg
catalyzes
symptoms
nash
whiskers
clinoptilolite
##elson
overhead
458
sidewalls
##itan
singularities
filtrated
mounting
cambridge
burgers
##ppers
tbcs
##xo
usy
1962
nanofl
##iso
stein
poise
oxidization
##temperature
owned
umf
refin
gcat
ballistic
auv
##apies
25g
≥0
dad
##arth
##soft
rta
anneal
satellites
bradford
brushes
##ppe
burke
contexts
##yness
##istan
ch3cn
##anex
237
magnets
302
7m
mixers
lognormal
ced
##amura
ideality
uhmwpe
devolatil
mpt
2010a
splat
abbreviated
deviator
1−ν
##≤x
aids
epi
maltose
occlu
phenylalanine
prox
lipss
preclu
populated
scb
##bell
−u
scram
##ocks
encapsulating
synchronized
##lower
ire
9d
stub
computers
##bq
minlp
phylum
##elles
ssm
ibm
consult
ensemb
573k
##ias
##al2o3
aven
alc
auc
pillared
##uminous
acous
dps
d¯
##anethiol
##±1°c
moul
ons
nothing
a¯
1959
lenses
h5
tke
unsupp
doxorubicin
##vss
marqu
cbd
bst
vicinal
levy
##σ1
silan
lscf
preval
implication
ν1
0s
120°
stair
lenn
fueled
goni
##inθ
percentile
lights
nonw
sphericity
firmly
conflicting
gos
−20°c
productions
xo
##stadt
excessively
refine
##och3
##iden
disconn
##osilane
necro
iptg
mwnt
als
lubricants
poultry
##ectious
475
pectins
mmc
c2h5oh
backscattered
6μm
iaea
occas
−196
##yllium
chemotherapy
3200
pdc
succession
anfis
permeated
10th
feeder
##ario
##roll
wij
superparam
delignification
uhpc
boot
45min
remn
3°c
kos
##zk
ccl
cementation
oda
isocyanate
##forth
contradiction
aβ
quoted
liberated
ωe
controllability
045
riemann
snowmelt
##oxidans
##ethers
##00000000
miniat
aus
∼7
##80cm−1
##ww
##grass
signatures
coprecipitation
##eca
oppositely
10μl
488
##fine
cu2s
chcl
##ignition
racemic
mth
attitudes
backfill
infectious
730
plumes
qian
##dτ
ars
ha−1
##onuclear
hnt
##2010
hydroquinone
##slope
shs
##−ϕ
cash
pto
hipims
sao
##tizing
calls
acylation
gloss
ssi
##qh
urethane
lta
tauc
nominally
1−ϕ
15nm
cucl
splits
scanner
hass
3100
cogeneration
##∫01
e4
coriol
ctc
hob
##oster
phenolics
contributors
pitching
##ti0
##illion
developer
10d
##h9
sichuan
srm
e˙
emi
##tizers
∇p
restraint
fluctuated
50g
pdcl2
sequenced
eroded
nicr
##ρd
##ch2ch2
weekly
impressive
orthotropic
dosimetry
ionizing
jackson
pmv
breeding
γd
irrigated
##igt
initiates
concentrating
rgd
dimerization
sulfates
stabilisation
##cens
##ishi
astaxanthin
giant
##μb
523
faceted
naa
fruitful
twofold
industrialization
ascrib
##volume
oak
substanti
amendment
tsun
chimney
cosmetic
connects
##r4
##qj
toroidal
nikon
##uin
##ogenes
##xd
financed
retr
skewed
de3
bior
approval
tch
eukary
tendon
ensembles
2ω
jr
rus
kgm−3
dean
entity
exchanging
unaccept
motors
karman
c13
absolutely
2800
ostwald
λk
1−e−
−40
bipyr
profilometer
##image
svr
wors
##iph
migrated
##tase
manifests
λm
##epo4
αm
kk
##dense
dionex
necking
geo
titrated
##amid
cra
cie
in2s3
gratitude
pastoris
rag
hao
liao
##ibrils
−100
##vj
recognised
hurst
copula
schro
discretisation
phylogenetic
procure
##ache
dissolves
congestion
avance
a1g
restricting
dryness
math
##vl
eigenvector
buildup
tmin
##tot
topologies
torrefaction
qy
prospective
τs
novelty
putida
packings
swine
famili
shaping
coagulants
mgal2o4
##acion
visibility
timest
energetics
pentacene
circumference
walker
0d
parametri
discriminate
cμ
dithi
εc
pd0
photodiod
reproduces
quies
uncorrelated
zou
tetrabutyl
##khorst
asu
facul
looked
718
thinking
channeling
hydroxyethyl
proxy
join
##worth
autoclaved
restruct
intersections
soap
−m
##eland
cmk
augment
##ocompatibility
arb
umb
replicated
##geometric
gid
##rey
chs
##ogether
smc
uplift
jobin
##ono
λc
ripples
##mers
unloaded
imprinting
8μm
lep
lipolytic
##illo
broadband
##yph
boards
cca
eurocode
##utaneous
tfn
voltammogram
##agin
gul
mesoporosity
cfa
##redict
nitrous
angiogenesis
appealing
vermicomp
##kelet
##olu
necked
fing
chromatogram
unsupported
hexahedral
evans
extents
partnership
##rone
hfp
header
contrasting
50μl
15wt
smes
##zn0
##∂h
plasticization
wpu
glutamicum
950°c
chlorobenzene
inequalities
deficiencies
raphson
overload
alv
heme
nested
sketch
##atable
##rolein
##tii
pll
β3
##→i
campus
shg
1⩽
pnipaam
rcs
##6cm−1
leon
kratos
lis
efflux
uva
controversial
cementitious
1450
##imetrically
softer
wpc
clt
asd
deff
##dep
kill
##vv
flocculant
infinitesimal
wec
tribo
cmcs
larvae
trehal
ari
tf2n
##osine
##agel
##aug
xij
##ods
remed
extractable
cinnam
9nm
##armonic
splash
−g
mullite
##axel
−s
hydrocollo
exceptions
##iant
2009a
ais
monetary
statements
−∞
infra
biod
poiseuille
##rase
##304
in0
refuel
accidental
##ocated
practitioners
lifesp
##aland
bae
##±4
6s
dog
subphase
libh4
1012
railway
angel
##enzel
delocalized
perfusion
##burn
nonequilibrium
phenylene
##opter
readers
imposes
mimicking
hcs
cdo
northeast
velocimetry
brink
hartmann
##addition
δts
##∂σ
##eled
photore
ags
cpm
1×
swiss
aquaculture
heteropoly
prolonging
altogether
##pj
rug
δg°
vaccines
accepting
hins
illustrative
predictors
flattened
kor
nitrile
clouds
allen
##ein
chromatograms
hof
indigenous
##2m
triblock
nbr
laur
educational
mucus
psp
lamella
pharmacokinetic
overpotentials
ccl4
##ophobic
mnfe2o4
##ogalact
deviated
1bar
aie
payoff
##culated
1−θ
##550
extractants
sauter
summed
complications
sial
electrodialysis
##inn
##elia
pour
tanh
5p
hypochlorite
mitigated
##koh
shoots
##enna
##ρi
##qui
15g
progressed
unde
anchorage
amorphization
yvon
αf
homolog
cea
mca
analogously
internalization
adams
243
pcbm
shipping
##romyc
enantiomeric
legs
##˙i
−σ
pdes
##121
##bil
avalan
##une
##otemp
##ungal
dissipate
sols
##exp−
tpe
washcoat
##dg
solitary
##emia
dosed
rapes
hern
150mm
osa
flanges
parti
##9cm−1
##tish
rapeseed
998
sinc
lto
swim
373k
photoanodes
oryzae
explanatory
##lattices
##thetic
archae
payback
bends
##ersen
cofs
estimators
##opolys
generalised
amps
baso4
##standard
##2−x
donation
gong
1024
000rpm
surveyed
253
oligomerization
2012b
tide
35°
chlorophenol
##atz
upgraded
slowing
coloured
##acao
yolk
##eu
##nh2
##aton
grease
##∂ui
##yle
##plate
biotech
dissem
clink
southeast
rendered
reddy
##reen
##aca
##oxidized
##enclature
endocytosis
myr
pdfs
##liest
##iki
az31
click
##siloxane
bedrock
345
broaden
lei
consumptions
sbp
subsidies
grams
fragile
dates
techno
##7cm−1
meyer
##enzyme
##ishable
tanaka
multidimensional
overg
hydroxyprop
200mm
exclusive
tad
hco
paraffins
##dex
##ankton
connector
##mk
244
stripped
nacional
coriolis
profitable
nomenclature
methodological
cdi
accessory
##free
##roline
##osin
820
rcm
tsa
pna
underestimates
peeled
chelate
##hou
vaporized
asb
reversibly
fra
magnes
lon
##fies
contrasts
crash
pdna
societal
adhering
weakest
maritime
rearranged
870
ripple
finn
##alin
##atidyl
##eries
##60cm−1
cu1
authen
mtx
##jug
helices
plateaus
texas
1013
νt
downsc
volcanic
blown
commodity
duan
enantiomers
infiltrated
race
theta
##ulk
feox
negligibly
anc
planetary
steepness
dod
mips
forestry
adventitious
circumstance
4×4
frank
infeas
synt
returning
∫01
##hexyl
oligomeric
fittings
##osilicates
##9s8
judge
levul
envisaged
women
guaiacol
qv
looping
##zzol
−11
1900
limn
genbank
multiplicity
enlarge
nanofillers
rng
##∂∂x
##itch
mgg−1
molecularly
adaptability
intriguing
alcoholic
habitats
trichloro
pa6
##06
##vast
##works
pebble
tcl
##icine
n−
##akh
##illi
20μl
transf
##ingham
guangzhou
cyanex
unconv
freestream
pco2
kq
faculty
grouping
urease
welds
amel
cpo
hdt
##τ1
fragmented
m6
intraven
unsatisfactory
2hz
clearer
leo
robot
automation
mems
810
##pes
##hw
##born
qpcr
irregularities
cassie
dioxygen
admix
extractor
gli
uts
dehydroxylation
toe
##δz
unpa
discount
amen
recla
disagreement
##men
##othiophene
eucaly
cytoplasmic
pooled
overestimates
yb3
cosmo
codon
tukey
##fk
aam
noises
##βi
killing
gst
2300
δb
adp
tsc
ya
##refr
aggrav
offline
isoch
edm
δϕ
therapies
cher
upgrade
ε¯
##nu
##nk
improper
torch
inhab
xw
locating
casp
##ce0
expertise
entropic
ncd
li4
tsat
880
##t−
aic
workflow
mst
##lund
southwest
gluten
7e
eagle
3cm
tentatively
popularity
acp
farther
pressurization
k2o
##a−1
sss
potentiometric
purify
triggers
6×10
033
pfa
k−
insets
##sep
crystallizer
026
λ3
unchar
##cv
dpm
##top
nicl2
lactobacillus
nlp
tout
millil
overlay
archaea
spectrophotometrically
##sio3
##period
##romyces
920
##lj
amper
lennard
c∗
detr
citiz
artifacts
suite
αg
σk
ilmenite
htr
##phos
portugal
##anion
grin
inundation
tren
rights
##uries
pebax
fij
##proble
4000cm−1
##map
λj
##opher
quantile
ntp
##ulatory
##imides
sioh
368
acetylacet
σm
##o−
puf
cytometry
glide
ward
lifepo4
agit
aptamer
##e3
##estation
##sinh
##uto
75°
9000
##agulation
pdda
##yama
efb
t50
##psch
modulating
piers
lux
##ynit
quinoline
deuterated
ning
exhaustive
earliest
p450
0μm
cob
fα
insb
campaigns
heap
msa
transistor
t7
acrylonitrile
bta
vanadia
##epitaxial
##ensurate
partitions
θn
##arz
kingdom
beryllium
canadian
unambiguously
060
259
##gradation
prevalence
##alis
h2po4
antigens
parameterized
quiescent
nanocellulose
zrp
219
contradic
##roud
furnaces
fdm
##eder
isc
ao7
##anna
como
genetically
eucalypt
##waves
5±0
bca
##wj
pyroph
gangue
fluidised
##mgg−1
100μg
burners
ges
##ght
ellipsoid
##cos2
inflation
14b
fos
topographical
nanoch
##hev
antifungal
expenses
labour
coac
hydroform
bought
c15
compromised
corrid
voxel
secret
snapshot
conduit
##oors
polygonal
##abr
entails
arriving
##arel
∇ϕ
electrochromic
##uria
mushroom
advis
w¯
1011
dssc
trehalose
attaching
##yte
revision
##frame
unconventional
lorenz
##iu
hkust
##helwood
oat
slots
lifespan
##yo
csm
specifying
019
000g
favorably
welf
polytetra
annex
gix
##∂∂
2q
emphasizes
tractions
##tegration
##expl
cf4
jen
##∈rn
movpe
halloys
orthogon
diffracted
hinges
krish
somehow
yarn
gellan
procurement
liberation
favours
glazing
conformal
formamide
epis
##δ1
immobilised
temporally
dor
transporter
tagged
##poll
zrc
daw
r∗
##athan
alkoxy
integrates
bioaccum
85°c
fulfil
poc
ppa
##rl
##table
picked
##ibb
##ront
oliv
##dγ
intersect
trick
descriptive
esterase
radiator
continental
unbounded
anchors
unal
ballast
##apillary
mesoscopic
fom
##asc
##iber
gallic
grace
oligo
darm
hebei
examines
242
##t→∞
renormal
violent
instants
richer
runaway
4l
li2o
silo
cyclot
vasp
sia
##uil
guard
hinshelwood
ascertained
##cosα
h3o
xiong
prefers
partner
highway
pyrrolic
roman
##raf
tonne
γt
admit
trucks
cα
##osable
reciprocating
aber
condense
unres
0h
labs
abb
disclosed
blunt
##∂∂t
standpoint
≈1
recurrence
ccr
50wt
csd
pros
##lofen
mdea
nix
tropsch
catholyte
ana
##ρu
oecd
ph3
travels
reusable
derives
canal
tpb
yd
ampicillin
somet
inception
coumarin
msr
excellence
##acil
sno
calb
strike
pmp
equiv
znso4
polypeptide
##θs
eqe
intelligence
##σi
porcine
leuk
282
borosilicate
1015
foster
stiffeners
voigt
mirrors
cfp
##nds
terminus
eur
q−1
1w
lining
abstract
6fda
w˙
##ptcl6
polydisperse
l9
κ2
phag
##jm
##amel
##liquid
viscoelasticity
resor
organisations
##q˙
mesoph
##sci
1τ
220°c
destination
safer
cdw
393
##˜k
openfoam
capacitances
shielded
marquardt
##utri
packard
scp
##pan
31g
scratches
chelation
epilayers
τw
suspected
amid
polycyclic
m−
##icative
clone
envelopes
caten
nanosecond
s15
lial
##clim
brilliant
##∈ω
##≤n
λt
##pyrrolidone
degener
##→c
multiph
polluting
473k
##reating
disaggreg
##cycles
something
a−
20th
inspected
adducts
standardization
interpreting
contracts
##activities
##σ0
##rogenic
templating
conject
bessel
terp
intel
ωc
##berger
##onen
paar
hvof
8hz
eem
dihydrate
##acetamide
266
permissible
optimise
predominance
shu
15s
δh°
hhv
spiro
acrolein
ferromagnetism
welfare
structuring
coincided
csh
##μ0
refinements
##mh
overcomes
fingerprint
20cm
hexagon
illuminance
resistor
isobutane
numbered
esd
kurtosis
dummy
ηc
##qp
whsv
##ostasis
dopa
bubbled
pdma
passengers
nie
βc
boiled
immunos
pozzol
denatured
polygon
##tze
##aei
##oglobulin
nodules
sche
fluctuate
##oxal
engaged
rosen
sex
configured
leth
charts
##02π
undet
##lofenac
τij
##qv
##ymore
ucn
subsonic
soret
spatiotemp
##xga
##ernst
eclip
haw
compromising
pag
485
abscissa
##ardi
alkanol
##yk
5μl
replaces
sark
fao
bdc
boosting
##−∞∞
biogenic
ppd
skim
examinations
architectural
businesses
##iffer
overlo
imc
keg
imprac
alkoxide
##etz
renewal
252
hepg2
uin
2011b
ramping
h3bo3
uncovered
bold
wounds
ellipsometric
##oproteins
vu
247
toolbox
polish
dce
##olvent
punching
nlo
##o7
mo6
demanded
aerodynamics
hyperbranched
cyclones
##3o8
refueling
338
pivotal
##ppage
∑p
reclam
6v
kaz
repos
predictable
nfc
tedi
norway
heterogeneities
vienna
bucket
chemiluminescence
gz
15h
equipments
δt2
fading
tire
elasto
monohydrate
coacerv
dσ
centim
identically
david
counterions
fvm
jg
2mol
fume
20a
bert
legendre
pant
sublattice
ipce
halloysite
glucopyran
ionisation
2008a
mercapto
mhd
hydrofluor
mega
##isters
##acterium
proximate
superconductivity
##ϕ1
affir
inertness
dihydroxy
vacuo
##rice
photost
deteriorates
tags
anymore
immobile
##rosting
glcnac
ωp
##elts
polyether
taps
##ighting
mortars
micror
landau
doublets
purities
ridges
deviatoric
##afts
attainable
mg−1
##fe1
uniqueness
marc
##yu
transformer
##θθ
##ycles
woody
reclamation
##cyclohex
congo
terephthalate
xh2o
##inh
permang
unpaired
muss
thermosyph
letter
##ithin
##c12
δτ
beef
ribbons
metropol
1δ
nasal
εg
nerve
±3
##enson
yong
rejections
homology
granite
palmi
premise
disciplines
∑t
oco
glucosamine
curvatures
##pecific
##i−
reef
mesos
zf
deuts
##∥2
photoreactor
lhv
1atm
276
administrative
1650
talc
##2020
##whel
icdd
gill
##eva
##quez
goniometer
##acetyl
carbam
covid
##cases
impede
kul
##optim
biv
##wn
tedious
corne
zebra
demol
succeeded
flory
##jas
k5
dm−3
830
affordable
mosa
##methyl
28°c
rhamnolip
diffractogram
prestressing
outgoing
recombine
##acher
808
diurnal
impart
sale
prevails
sin2
outperforms
argen
##uminescent
effusion
permselectivity
99m
triplicates
lix
zis
##current
redist
ncbi
vgs
ag0
sulfone
occurrences
##ggish
ch3cooh
perceptions
##uistic
entangled
fickian
cognitive
ahmad
zealand
sluggish
ctr
quas
yangtze
xing
dcb
tb3
532nm
jul
smelting
##lx
##ishaw
328
##olo
2ε
roughened
s14
##mas
hyperfine
superparamagnetic
antisymmetric
msp
compliant
siosi
silicas
##acian
##rio
blower
grooved
military
explosions
nanogels
comment
regulators
electroco
##2−0
flapping
cpl
##lah
fecl2
##athy
saturates
##2t
##idad
jian
##rod
##arrier
##m−1s−1
stones
translate
log10
editor
zr4
723
##ropl
cellulases
finance
##oflu
contemp
##ruit
ignore
σf
topograph
asm
finest
underlined
rationale
firmic
siliceous
autoignition
vein
comfortable
meshed
butter
##108
aqua
30mg
manipulate
widening
unresolved
f5
darmstadt
locates
alam
assembl
initialized
abr
lav
lfp
cuttings
hydrogenase
##kx
bto
##xoy
2700
jl
impellers
moon
dag
linewidth
typhoon
medicinal
##50mm
organometallic
30μm
246
english
isost
##ante
smps
thawing
linoleic
esca
raffinate
##ipy
##α0
acr
##ibi
naphtha
translocation
##ulti
liquidus
τr
##group
inco
##2b
##ins2
stiffer
persons
hydrocyclone
rds
−y
overwhel
##acm−2
sewer
fumar
salen
instron
epidemic
rainy
##×30
##ku
relied
commercialized
##vian
##accharides
p−
wag
porosimetry
delocalization
gag
rif
##bh
oliveira
citrus
familiar
725
elbow
##→r
cht
discomfort
provisions
##s3
0cm
jf
##don
rwgs
2ν
##ameter
excite
implementations
tiox
retrofitting
embedment
permanganate
0and
firmicutes
ρe
2na
snap
jim
yˆ
rocket
couplings
moore
supervised
632
adequacy
monom
axs
stirrups
n2h4
therapeutics
9g
##tio
aerial
researcher
qiu
janus
ops
exergetic
bituminous
exemplified
complexities
costa
##115
microbiological
multiply
ptru
drough
paddy
plexig
keggin
transduction
##non
tref
##mahg−1
fe3c
aibn
corning
##yth
∂q
crs
remember
##dξ
−50
cuin
homes
prompted
mms
compensating
palmitic
tetraz
scott
margins
tapes
##flood
impaired
renishaw
transformants
##ρw
twisting
moderator
##ifi
##istar
approximates
hills
##pei
##like
##δr
hewlett
tgf
relativ
feder
thirty
sn2
programm
notations
##acetylene
subcutaneous
chair
nq
##≈2
macroscale
oxygenates
623
launched
stranded
bird
##ibles
##04
didn
consortia
photoresist
##itaxel
tempered
##xe
co9s8
specie
luminous
rde
rotates
irregularly
won
vij
jur
##ugg
rinse
150rpm
molality
depressed
##¯n
unavailable
s1a
028
birefr
droughts
venturi
##gluc
φn
cch
9mm
phthalate
niel
nax
scratching
phyto
upsc
##olinium
tailing
dibrom
faec
12m
orifices
0l
μn
ψ0
spars
##arp
bacteroid
methionine
yoon
##∑t
##iphenyl
nucleoph
##andi
gcms
nanometric
kgk
methylated
ownership
factories
inhomogeneities
##∂k
nernst
##η1
spheroid
protrusion
mds
##jl
volunt
screws
decolour
diabetic
splitter
bi2o2
epoxides
birefring
wenzel
contempor
##2h
analogs
catastrophic
##yltrimethylammonium
tst
sund
25mg
scrubbing
##yx
haze
metallurgy
##iest
venting
microemulsions
functionals
secure
exceptionally
endowed
installing
aviation
d12
##3m
##onstrained
gur
rio
##ulo
clinker
cd3
ism
corroborate
microanalysis
sheng
shao
##tebr
8×10
hydrolysed
bedding
##pyridine
##m−2h−1
∂h
supercooling
sda
4min
asian
paramount
cufe2o4
##hedrally
asperities
scrutin
1γ
−15
##109
60co
compacts
uptakes
hydrocr
spatiotemporal
winding
xiang
yf
##¯k
cycloaddition
##lora
##istingu
laund
t˜
choline
##nett
coloration
spd
isobutene
027
unacceptable
microgravity
γ˙
3h2
##oreg
temperate
sell
smb
dress
isos
style
hon
biomasses
nms
potentiostatic
questionable
pbt
pads
paris
clarification
stomach
lhp
296
experiencing
##eo
threefold
2600
521
baking
thomp
burd
laplacian
subdivision
paclitaxel
sparger
##si3
ashrae
trimer
warping
arte
upr
redundancy
multiplicative
siv
amides
protrud
##sij
mercapt
phbv
∂ui
##oft
##αn
##gru
pcdd
eu2
src
##pack
cones
0mpa
ptt
##arbonyl
mumb
hydroxybenz
preparative
sail
pulping
##fh
##bbles
salting
electrol
i4
6th
dcw
hso4
transporters
1−β
exhaustion
##eping
mfa
25nm
hernandez
##δg
dilation
diverging
diclofenac
lands
kro
##5−
osaka
constitution
##biotic
thompson
bleached
electrooxidation
h2ptcl6
mumbai
causality
devolatilization
mesoscale
fats
##obor
##ethacrylate
tect
absorptivity
sparging
mant
3hb
golden
tft
moox
matrixes
builds
macrophage
##monary
ims
θm
##cor
ferulic
150°
quantifies
raz
v˜
##iley
incidents
##icon
932
snr
##frost
geor
encapsulate
governmental
warmer
qualified
asv
suns
conference
crypt
omn
h6
νs
birth
minister
##±2°c
karl
sorbate
823
##→h
##tica
hpr
##40cm−1
scalability
thermomechanical
quadrant
crl
motifs
##acing
zl
##mass
macropore
##place
acceptability
fermenter
informative
demulsi
advice
microd
neighbours
θa
translates
answers
electrolyser
subrou
hemat
dda
402
knots
monoclonal
fibrinogen
baf
craters
carbonated
endpoint
##gene
stores
request
simplex
pij
rope
##imm
##tured
∑e
8v
fluorination
φs
metath
solvated
321
ciencia
##idia
daytime
1−q
cyclohexanol
1nc
4p
ova
chief
ric
tci
##graphic
hank
party
δω
##sin2
aunp
polytetrafluoroethylene
eri
##αk
taut
875
##x12
menten
##zers
exacer
exacerb
##bia
clath
##tight
denitrif
##bpa
exported
lactide
grape
deoxygenation
##etallurgical
∼8
microbubbles
hunan
jv
sart
microbalance
363
ωj
tendons
conceived
fren
arabic
ρk
##isch
##ohydro
ratch
teeth
coupon
##oflav
##rell
stiffener
∇v
sensitization
temkin
rebars
θd
280nm
##wb
magnetometer
−9
colonization
hypertherm
mce
cr6
affinities
evb
cemented
pho
##σt
inval
collide
enum
epc
capes
eleven
egcg
2ρ
##ohex
ifn
fleet
gibco
##oplankton
hierarchically
##−ξ
miy
unconstrained
##amers
overlying
accommodated
##1d
arag
l4
ead
ernzer
adapting
##elin
##ideal
nanoflakes
renal
cou
biocatalytic
##ehpa
331
adsorber
ybco
tq
manoe
263
interpretations
080
refluxing
p∗
860
##so2
teaching
257
xerogel
##erating
σp
##1b
warb
hbn
##εs
child
aur
assurance
##003
aspir
disinf
##tini
multistage
cpd
puff
metallization
unequal
##gents
pean
overland
##atsu
wolf
415
412
calix
recovers
greek
dielectrics
nitrifying
rewrite
100k
macromolecule
gulf
emf
exceedance
fmax
interferences
##o20
sourced
cane
##aman
achievements
shroud
tart
lecithin
weno
coordin
150ml
cdc
##ayan
sih
8e
knife
omw
τp
##×8
##opamine
interchange
emd
pulsing
leucine
zro
hwang
allerg
intric
si2
7wt
θj
1073
hydrod
hend
mrt
251
##azan
relativistic
amelior
1960s
irrele
lyc
interc
fox
names
enantioselective
##plus
coox
mto
anthra
authentic
923
291
appliances
precipitating
rigorously
γm
464
youth
nanobelts
##¯j
##co2o4
##obacterial
emissive
dominantly
braun
##eastern
##istinguishable
##θ0
##oo2
##roduction
##cinol
a˜
##ql
pems
fcm
flattening
acquiring
cassette
vanes
witnessed
mappings
##endorf
taguchi
naphthal
friendliness
##sea
flavor
fluorophore
hypersonic
εf
gij
##chart
excitonic
##tec
##itin
inland
sepha
movable
apha
##cnf
cements
spout
7μm
carbamate
3r
∂xj
kond
fills
nh4f
dnp
##mm3
radiated
hsu
detergents
wvp
obsc
calm
##iti
unpre
misal
singly
flashing
4cm
##oluminescence
humidification
recirculated
ethylenedi
rack
ireland
complemented
##∈i
associates
marrow
infeasible
##250
##endall
##rison
##strain
microgel
traits
baux
perfluoro
alli
hcoo
13x
coco
##apsule
277
dapi
patents
ned
281
##phosphine
sepharose
ligament
tornado
##ochem
1−r
perpendicularly
##dk
bain
critic
workshop
ethical
fow
influx
monop
manoeuv
emo
anolyte
385
chongqing
tsunami
morning
ρr
pegylated
ou
##xrd
##λn
discol
jeff
##μi
mog
determinants
##adsorbed
hemolysis
zebrafish
mba
vermiculite
gage
rtil
##aln
d10
realised
temporarily
1np
relaxations
dpc
conic
photoconduc
mlr
wrinkles
stuck
nsga
pinene
##αs
electrocatalysis
descriptor
differentially
tradeoff
##enez
saccharomyces
cutter
##inkler
oxynit
homogenizer
##bg
##thon
∂xi
n¯
##ithography
preset
292
lci
##f5
z3
polyvinylidene
deta
coordinating
##δt2
30g
ming
##bro
metathesis
upto
calcining
ψ2
inconsistency
masked
photophysical
##pent
horizons
niche
##arg
eclipse
intersecting
##ocyt
outperform
eucalyptus
λp
##maz
posteriori
avg
collisional
##icans
##amins
mediate
boosted
viewing
judgment
irreversibly
##cut
atlan
sn4
burk
##ysz
##h2o2
attenu
1956
##7a
##osides
rearranging
glacier
036
##bium
timely
gyration
stalk
tsai
d2ehpa
2co
##tein
burns
411
taste
xad
paulo
##bound
violation
mimics
##osphate
peaking
nah2po4
500mg
flax
silage
spheroids
narrowed
isogeometric
ase
6890
cancers
streptomyces
dichro
##xb
##∂u∂x
congru
uncharged
1120
tempering
r22
plank
##allis
065
gender
microcos
−z
streaks
axi
200μl
hut
##u→
e¯
albed
##ieg
pharmacological
sketched
2007a
∂s
thiols
940
farml
cual
letting
aop
reorientation
intermixing
hgo
280°c
convinc
associative
258
learned
mountains
synd
##pollut
underway
##ublished
deleter
fibroin
##anxi
clot
##c5
2006a
laco
pulmonary
96h
positrons
deleterious
photoelectrode
##orsk
bayer
elastically
ghost
rdna
4hz
gates
absorbents
##gram
extruder
##othiaz
δ13
signed
##rofloxacin
##level
##lyst
##ψi
bimolecular
##vap
##ciences
σe
templated
aoa
spouted
180min
12mm
ethoxy
carotenoid
willingness
2mmol
uncoupled
proposing
##osidases
##bumin
peterson
globe
fres
shade
protects
##irt
voron
##cu0
##words
267
nanocatalysts
##adh
cockt
mits
lactone
hydroformylation
photoactive
10°cmin−1
##chin
0a
##αj
268
16a
dgge
chile
lambert
reorganization
##kow
##ellation
halogenated
##western
sans
atop
borders
usable
progen
unpublished
irrelevant
countercurrent
edwards
−ω
000×g
summarizing
##yron
insulators
biotic
slippage
dbps
##dev
masks
8s
##lastic
dif
colliding
neutralize
lud
affine
photoiniti
5418
##oscope
patel
f20
wz
chor
hexanol
mpi
curvilinear
##660
percol
7th
subsections
impractical
##ρcp
337
032
##odiimide
ηs
∑s
##hang
erron
uronic
##lit
##−∫
sums
streak
rmsd
urg
boreholes
dickinson
##aver
collapses
azeotrope
dealumination
locked
periodical
400cm−1
erroneous
polydopamine
575
ferrites
1−f
##aphthalene
municipality
7days
##wan
##2017
alkyne
##worms
peer
ξ0
sulfation
eol
m2s−1
oscillators
deflag
lia
enclosures
sco
flexure
player
grafts
170°c
monotonously
alo
##odym
chromosomes
idle
##cellulose
redisper
mori
monodentate
kronecker
##ynch
fdi
##πr
##lean
wooden
dcmd
photodiode
θt
##adro
signifying
nelson
neo
∂g
##bin
casted
immunogenic
gla
##acylglycer
chemo
##uning
873k
711
hatch
≤1
equator
griff
trou
uhp
antec
intentionally
##estr
517
##macm−2
##ours
ibu
##dma
∇t
discernible
nal
reporter
21st
jd
tbab
amination
##cryst
fretting
muk
ctf
seemingly
##re0
gd2o3
ccp
constructions
pyraz
li2co3
salicylic
nanoscope
##±10
nile
348
immunity
photostability
##λj
##ce1
tecnolog
henan
discretizations
##hoter
fluidizing
porphyrins
cic
##educ
sustaining
##making
nd3
sulfided
normalizing
6700
photorespon
programmable
294
palmit
pakistan
2o3
##γn
loi
dir
centreline
huv
sperm
##κ2
completing
60nm
nα
##202
intrusive
nanoribb
ron
500μm
pme
drx
mishra
ecotoxicity
crucibles
∼40
pebbles
fq
contig
unaltered
accre
engage
york
icc
antisolvent
grossmann
arn
representatives
leaks
plasticizers
teams
a549
lags
ribbed
undiss
a22
agnp
organocl
ingots
##apsing
##×12
alvarez
397
atz
segmental
wox
thereof
zeros
adults
amphoter
##316
##nis
yellowish
##μf
##8a
differentiable
ucs
immobilizing
qo
∘c
##ghum
##ctan
jh
##oda
99mtc
##x22
alpo4
disassembly
6hz
##butyl
##φ0
hepes
##transferase
##∈h
refineries
shaanxi
paly
draining
emulsifiers
gsc
##p4
normality
##phy
770
wrinkling
5×10−3
multival
μr
adsorptions
orbits
james
##mos
18o
nanoplat
274
60ml
279
ave
breadth
1260
ernzerhof
nes
polysulfides
τd
yttria
pt3
psds
microencaps
micromix
caustic
ca3
hydrocracking
ted
##pas
benzoate
invalid
molds
##otherapeu
shrimp
40ma
∂∂xi
digi
25wt
ln2
mc3
sfc
##alo3
dimeric
1kg
tig
proteolytic
specifies
steph
sorghum
gathering
##ej
sweeps
crad
updates
lund
beckman
hessian
##chloride
neighbourhood
615
actinides
immuno
nca
##∈p
403
lss
##anions
lpm
##fsi
##verat
##onomy
##750
k∗
wuhan
anteced
332
niox
mycelium
##2018
preserves
##annels
offices
renewed
nipam
##conversion
##bulk
v∗
ingestion
##acrylamide
##icos
rpb
scarcely
metrohm
2010b
synergistically
anemometer
##octyl
sca
instrumented
warburg
brighter
##zzi
congen
rust
sm3
##kan
nation
hurric
##enchymal
infusion
polyols
psb
mncl2
llc
lifec
polaron
customized
ϕj
pt0
422
##icum
300mm
hepatic
schools
disrupting
vater
matth
lafeo3
znpc
##kovich
roi
dulbec
sfs
bauxite
ncp
tricl
1014
resonator
campbell
##size
stiffening
studs
cavitating
wasted
##formis
crev
albedo
##agor
cdp
seaweed
lotus
##egative
thomson
interconnection
cspbbr3
chou
0on
phosphatidyl
leachates
linguistic
compton
θk
2≤
indistinguishable
slowest
het
jay
tier
150nm
297
sharpness
unexpectedly
δα
incompatible
vitamins
nerv
searched
preconditioner
geld
briqu
cbn
regressions
isooctane
bacteroidetes
micropollut
preheat
5×10−4
##ch2oh
seas
desir
pmt
neuronal
pyran
emits
0005
ert
##yanide
sigmoid
##opus
##00000
##oh2
forsch
labelling
##veratrol
syring
##anil
elastoplastic
dupont
##state
vad
landsl
lun
p˜
glued
monkhorst
nielsen
##oluene
300w
##day−1
parks
wrinkled
15n
##×d
microbe
benefited
poisoned
chapman
tocopher
amenable
chin
historically
bioaccumulation
##mg−1
##onometric
αβ
flowchart
##ynes
lao
dulbecco
thermogravimetry
c30
4f5
##rx
necessitates
307
bronze
anyway
φj
utilising
rotors
harmon
γh
drier
alkyd
atlantic
baz
arous
optimizer
##reduc
mbs
microv
##∂2u
##icel
aster
shales
fds
tari
counterflow
2100f
explosives
digit
cls
sphaler
nu¯
completes
tear
flocculants
2τ
daf
impactor
hampered
emer
pentanol
rectification
p−1
hint
##b4
pzc
metallographic
nanocatalyst
belief
pancreatic
##arms
insects
γk
δδ
hulls
tav
isosteric
vaterite
lioh
eosin
5t
##layers
crm
##nac
equity
desorbing
hydrofluoric
sphalerite
7×10
##hand
##tet
resembling
##oadhes
stark
αhν
sple
keywords
7mg
productivities
correcting
pef
saliva
spatio
burnout
##weg
s22
##ogadro
prestressed
a∗
uncomp
formulating
dihydrox
2−1
rps
##holm
gins
mbc
##cinating
thre
##udi
sodalite
pyridinium
−l
3300
rss
mg3
asce
mead
##ankar
olivine
##ando
amperometric
##shift
equilibrate
psychological
hemisphere
banana
##cales
790
retarding
0mmol
kab
mbrs
pbm
05g
diversion
contaminations
bolted
ranks
αj
##uta
300mhz
250xi
##alg
sb2
ttf
permeating
concre
##q−
##pls
sludges
trigonal
tmg
8°c
kum
mucoadhes
τt
##rystal
naclo
relap
regressed
306
anmbr
249
##undum
malign
osteoc
begun
1π
100×
monodispersed
obs
s2a
corroborates
##ophag
migrating
##engine
glycogen
sectioned
undec
##aments
cornc
philos
μw
compati
henceforth
034
electrocoagulation
reside
nucleating
dtpa
excur
seeks
6cm
100w
electronegative
5ppm
arrived
snp
clamping
phr
submerg
walth
alleviated
langevin
254nm
##y3
polyhedron
uncondition
propanediol
astr
##obj
laponite
72°c
displace
mycelia
urgently
##lot
mesoc
rer
262
##0−
pans
rahman
resveratrol
rarefaction
##rg
##303
cfst
amplify
##∂t∂x
rectifying
##∇p
395
fascinating
embryos
brinkman
enamel
##ariable
dependant
criticality
msm
hemi
c44
jer
leven
hydrophob
splats
envision
nico2s4
5×
##actives
esem
lectin
permeances
eqn
kappa
##cox
electropolymer
rdx
##kas
nebul
peptid
ncn
nanocubes
hys
s16
competent
##ashed
polyesters
ung
##004
o2→
bbb
##hin
initiators
peroxidation
soi
microwaves
chemist
coercive
chlorite
physiology
c˜
centrifuging
prt
−16
60mm
licoo2
idt
##etted
##ente
##αf
bader
yh
spinodal
−25
rubbery
routines
##pers
monos
biomethane
deleted
zim
##quer
633
rth
bones
##005
endurance
dispersity
wheels
replica
##i−1
mbt
9m
micrometric
clinically
launch
disparity
##∇⋅
##isot
texturing
374
δj
packet
yue
##amellar
oscillate
isolator
waltham
tep
cupric
##odymium
##2cm−1
cosm
arose
2±0
γp
chatter
assisting
crc
laccases
##kat
potency
∂τ
##romycin
##under
##redicted
fˆ
laz
##ucl3
##117
projector
αr
harris
evaporates
##eposition
restrictive
##illard
bray
thiel
##450
465
argentina
recurrent
boride
d32
agate
aromatization
a7
chic
acidogenic
impression
##electrode
chris
meq
−ε
##rint
##amaged
mohamm
##˙2
day−1
municipalities
outgassed
oblig
prodrug
butanediol
##δn
rhizosphere
peanut
restructuring
hospit
indigo
##mn1
threading
##ais
##strap
visit
dosimeters
repository
##g3
znte
epitaxially
βn
15cm
fucoid
##kohler
focussed
##peak
##chlore
sleeve
mg2ni
dihydrogen
##u˜
dihedral
simon
##otypic
carcinoma
univariate
cdm
c6h6
foregoing
fifteen
alluvial
z¯
abut
##ijn
##azol
##bk
amx
dosimeter
bidirectional
naphthol
stil
##choline
blender
nanohybrids
institutes
eta
processability
##shell
hydraulics
##ichiometric
reclaimed
fastness
##rosite
manipulations
traverse
glycerin
mobilization
dob
lipolytica
##xga1−x
b¯
esterified
##frequ
##rev
tcm
##opharmaceutical
bruc
##2016
communications
f˜
infrastructures
cytoskelet
adenine
hua
exud
explores
ph7
ms2
transmissivity
mast
ωm
cradle
nervous
##×v
##atalytic
invariance
polymorphic
l∞
tolerate
undercooling
abdel
pegma
m23
βt
##110
τn
realizable
cyclotron
voronoi
posi
pyrochlore
##9nm
cancel
uτ
rehabil
geldart
thing
ovs
pdb
dε
microsoft
disposable
toxin
toy
polysulfide
discipline
##roid
arrest
pinholes
risers
##osylation
usp
##po2
##×l
symmetries
##bis
y∗
θh
##stress
multiphysics
##onald
pomace
hits
interlocking
jobs
##urch
cascading
##withstanding
##gorsk
cryogel
parr
055
quicker
##j∈
2009b
notwithstanding
##osarc
attempting
synergism
grout
##arum
orthosilicate
tanning
##γ0
##α3
asympt
ϕs
##ϕ0
british
b6
kram
pulps
coalesced
aesthetic
30cm
superp
ηt
dian
orthogonality
klein
##1r
##ph2
450nm
##burgh
umax
teng
emu
stretches
renov
encompasses
##obutyl
trifluoromethyl
autolab
##70cm−1
magic
bcl
ema
decolor
brookite
az91
ultrasonicated
zoom
adlayer
doors
##gk
unint
beings
svd
##iewicz
strata
desert
castor
c4mim
pt2
##ographically
kitchen
photobioreactor
##array
1−c
diamin
##omycetes
sdof
ferrooxidans
t10
lungs
threats
coni
##physical
loca
σb
waterborne
nonwoven
multivalent
murr
θf
aragonite
stratum
retrogradation
mound
##tanh
sco2
bmo
distal
mnso4
##1100
−∫
pˆ
haus
palygorsk
correctness
420nm
mong
##esc
terminations
##itrile
##using
##weeks
dith
seventh
θw
maximizes
396
##eton
obstruction
070
osi
dumbb
instantly
unfavour
swimming
cas9
oscillates
0t
dispens
exports
collapsing
derivatization
##∂xk
shallower
stent
∑r
epdm
docum
admitted
dia
h∗
##∂ε
vegetated
pfr
h−
primal
entail
inaccuracy
##obis
hydroperoxide
##irs
stripper
histological
##anto
##filled
resuspension
ttc
nh4no3
interpolating
7890
990
##isco
oxic
irradiating
permanently
cultivations
plif
##gj
pbc
chow
shirley
affili
suspending
##hap
##ilong
c0−
unitary
server
fractionated
balloon
271
c−
##iped
birefringence
∫t
repeats
bootstrap
##tech
sio4
stip
324
website
100ppm
μmax
chun
##fications
##allo
herbicides
##onol
silico
latin
impervious
voluntary
misle
modularity
ambiguous
jensen
##m−1k−1
##5o12
##hemite
1958
f6
developmental
thermosyphon
shanxi
1080
thermophoresis
##cano
6°c
1550
painting
nascent
thermostated
regulates
retrofitted
bivariate
##gested
gβ
##sizer
poplar
validates
isra
millions
##−t0
preliminarily
geology
csir
elastomers
harboring
aroma
40wt
repeatable
hmp
liposomal
rhamnose
##adsorption
##cj
slips
odes
##urational
##tik
taxonomic
σa
17a
resorcinol
orientated
damkohler
eigenfunctions
consecutively
##atile
competit
300ml
##ipolar
##war
cd0
r7
##→n
valance
930
hmax
cpg
##oshenko
##odiam
inflows
hpp
steering
##romate
##eto
031
pc1
##yal
oxidations
earthworms
##kinson
unexpl
##porous
hillslope
moham
970
layouts
antarc
εm
warran
dnt
##phone
384
##δi
##aco
##mof
randomized
egfp
abandoned
zy
##ixj
ndvi
dextrose
bob
fertilization
##formaldehyde
snps
##atrix
undamaged
participant
κ1
shrinks
##urt
##biosis
plc
##ag−1
##itim
threads
##soh
overd
##avity
louver
smagor
footprints
indentations
digestive
plaster
ψn
viscoplastic
financing
mtorr
remnant
submarine
brent
notched
geot
ingress
hepatocytes
imparted
hubei
supercomp
deae
hse
tryp
schul
bodipy
qws
photopolymer
flowers
##∂∂r
roth
responding
dimethylamino
80nm
##anne
eyes
##ocrine
sars
##xh
backside
granul
timoshenko
sticky
gpr
seals
5×5
layering
tsallis
citizens
##oseness
prefabric
consci
feco
agitator
3t
g6
rhenium
##wo
##1f
##lyl
##sius
##groups
lcs
burdens
k2so4
radiations
amaz
##rat
##quinoline
nsp
preformed
subproble
title
3×
εij
viii
fluorene
rav
##amol
parties
1n∑j
crowd
##anian
marin
avogadro
conceiv
lifecycle
pasting
1−φ
khal
justifies
srk
##3s
gl−1
pseudocapacit
isp
lii
oxygens
scrubber
commented
√3
attainment
munk
bridg
birch
##x¯
##brs
038
hydrolyz
naca
##fes
αv
terminate
g5
abdul
##abo
##ronectin
##oxia
injectors
825
404
polyethers
βj
african
autosorb
mucosal
##yfc
fibril
10×10
electrost
##ocard
alber
bwr
ocm
nons
corrector
nanocrystallites
subchann
payload
oilfield
##omannan
towing
legitim
reserved
6min
bioprin
isopropoxide
##break
sloping
##oreduct
##iman
mcclements
tbbpa
fermentor
grinded
v−1
##structural
029
glycosyl
blasting
priorities
accessed
##al2
1na
wm−2
arrives
superole
##eo3
cog
permitting
backbones
##achite
slack
##umi
petrol
palygorskite
−π
shortcoming
##ocatalytic
tfts
cmax
profession
bdo
309
##μgl−1
spal
donnan
##fv
##4s
sln
##dη
judging
integrations
rut
microbiota
0at
##athers
longitude
cropl
repellency
acclimation
founded
##aser
##igration
town
##accessible
s−
ec50
nπ
367
marble
nanodiam
magna
445
##neider
7s
hmt
tetradec
dermal
##αt
equid
##brand
##iazol
eaf
crispr
fiss
cohen
subsp
##ystis
crp
ciprofloxacin
unreli
##ultipl
coulter
paddle
##osus
repellent
glycolysis
pushing
heis
fermentable
##onau
890
antico
kω
elicit
hypothesize
ordinates
gauging
smagorinsky
recoverable
srs
williamson
donated
gravimetrically
##urning
epoch
truth
odh
disclosure
##oresistance
flaws
0∀
och
ohm
eij
##ρk
unpreced
mulli
styr
triglyceride
chances
lpc
message
rake
barb
spinner
refolding
##≤2
##yclohex
penic
leadership
desirability
bfs
##recip
μj
accuracies
interrog
advective
226ra
##1cm−1
5o2
superscripts
smz
##kii
λh
ontario
334
##tons
##qa
scand
pgs
##analy
##−ν
harness
creaming
onwards
condensers
spear
##onded
justification
τf
dwelling
##silyl
cau
phyla
kλ
levenberg
##kwh
activates
reesei
airway
shor
pots
##¯m
pyrom
##ζ2
inventories
estr
##2sn
##athi
epithelium
eukaryotic
r6g
2u
srp
##⩾1
caseinate
pum
disodium
gzo
jumping
tuber
rubbing
##atel
##xf
divinyl
rechargeable
2022
##oca
maghemite
##onated
##ilica
nser
outlines
courant
##apo
hassan
##relations
udp
##pressure
converters
dubinin
amounted
3days
##ρm
organis
broke
##uka
regist
spleen
##k4
hemp
alve
malachite
contemporary
##chair
gord
bte
##−8
succin
φf
##util
redes
painted
mirna
combustors
##δe
##cw
tellurium
repaired
lut
9999
kanamycin
delaminated
acetophenone
kow
mesenchymal
ultrafast
zag
15kv
braces
whis
rie
αd
ch3o
milder
1957
spruce
penetrant
participates
##μm2
hugh
necrosis
997
##ynyl
unprecedented
superalloy
burial
peric
##ensitivity
sii
shutter
mei
remarked
bever
basket
lasts
benzoyl
jon
amberlyst
propellers
##bys
##imax
quoti
t−t0
##utral
##nm−1
attributing
##hart
grab
ecp
ferr
configurational
estuary
##lw
##lift
##τ0
sham
##ayashi
basf
pci
317
l929
synap
ipc
ethylhexyl
nbt
famous
863
caprolactone
retrieval
tectonic
obliqu
##σk
##idization
hydrous
##reatment
∼25
lightly
5w
hotspot
##alumin
operon
eik
eman
piii
5gl−1
holog
ocs
colder
pvk
##inks
##3o7
##oate
computes
unfavourable
anomeric
smeared
##pipe
##ψ1
##ηi
m∗
##eav
syl
##enk
kerogen
anticipate
carbonylation
wareh
fluorophores
##ilanes
irregularity
##ypes
ωr
tyrosinase
##eld
hydrofoil
dpv
dts
microcapsule
flip
455
metaka
farmland
shuff
mucin
contrarily
unstead
tenth
strom
stories
entrainer
incurred
nun
murine
oligonucleotides
4i
obtainable
irreduc
encounters
σz
mock
upflow
egs
mxenes
au3
co32
zeroth
cuins2
347
lithiation
winglet
##δc
##omon
nep
##oplast
ceq
##ca0
aco
elic
undeformed
s1b
vˆ
outperformed
##−ts
nmm
intercepts
tpt
intensify
##αl
stencil
neon
sheared
disturbing
slave
nexafs
λl
bejan
multiplex
claims
dressings
700nm
ratings
##kal
cryogels
ira
##inf
ral
##enta
punct
nig
##biased
##×25
nucleotides
certific
mc3t3
tir
pepsin
##2g
corundum
hydroxylamine
##hazmat
##204
##1200
ruiz
depri
jhazmat
kok
questionnaires
∂σ
reman
hexamethyl
##t∗
1−γ
261
##≫1
ise
paraformaldehyde
230°c
##osals
exerg
glucans
##δθ
soliton
##uronan
lactam
pathological
mildly
incoherent
##aldine
pitzer
5ms
lanes
##isible
##scm−1
formazan
bhattach
entropies
developers
exploratory
##ipients
##gex
##ϕj
##real
n˙
sandstones
buoh
penicill
1∕
457
titers
##greg
baffled
suffering
microelectronics
programmes
gvl
photosensitizer
excipients
##mesh
hpt
##fet
##span
darkness
##bv
offsets
−18
δs°
##10a
evaporators
doll
biomarkers
calcinations
##halogen
nserc
noncon
γ3
divides
illumina
s2o8
∂∂y
##rian
atomized
unimp
fluidic
algorithmic
##species
hfo
##zyk
pozzolanic
krf
tolerances
paras
15μm
h3p
##icolor
intravenous
stearate
##fly
327
tdc
deserves
summarises
restraining
−j
1021
spectrums
bass
##ensely
eluting
disregarded
ergun
fumed
kom
##sian
scholar
caspase
baxter
huck
##bent
##trate
##v−1
##acids
molded
thermoelastic
##atal
els
veeco
##m˙
schwarz
statically
oxyhydrox
tariff
glare
thermogram
ferre
valorization
m∞
∑α
pyrometer
aca
benefiting
fusel
r−
##distribution
linbo3
##mond
chrome
910
2o
15b
throats
intermittency
mech
cfo
fesi2
##tiviral
repose
conditioner
##ellite
##frc
remanufactured
scl
ekf
##enols
##onomer
publish
unpredict
##tu
indones
##icious
merid
cabinet
θb
383
urans
thz
depolar
12d
pfo
intricate
terminals
demolition
ties
calcinated
##30°
5kg
∂∂z
phyc
galvanostat
##cu2
238u
tfm
toxins
x5
##asil
##elka
loam
mulliken
lld
##hor
##ni2
10hz
##ibs
kmc
w6
##λ0
impulsive
##aney
nrel
##3c
benchmarking
xrr
cruz
##fir
##agh
mechanochemical
yas
inducible
##oderma
##∈c
##→s
unbiased
lmh
iea
electromechanical
##electrochemical
thy
granted
multimode
manifolds
##x−
stationarity
nicotin
##inet
esa
##⋱⋮
assured
inline
conceptually
miniature
240°c
##×r
fortran
nucl
volcano
holland
na2so3
radioisot
ying
recruit
co2rr
1moll−1
ppt
beng
resident
deflagration
qui
triazole
nanocapsules
##itons
sphing
guer
449
##∂2w
reset
perylene
desire
∂2u
npt
μe
sdt
yz
grounds
##πd
overc
##istant
lnt
##xin
amr
franc
2¯
timestep
amyloid
vented
##2r
##avan
##alkylation
bour
oliver
sdg
##k−
aptms
γ−1
relocation
##otrophs
thm
polydimethyl
cosolvent
##φj
##oxys
potable
phosphorene
1±0
hlb
qz
basement
xos
emergent
1ppm
μh
isa
βs
vine
##otti
brow
remodel
glycidyl
levulinic
##5000
fores
2920
hands
##omerization
irreducible
btex
xmax
pyridyl
tess
si0
1000ppm
##apacitive
watson
immobilisation
murray
rcc
##σs
fsc
505
parenthes
##301
mangan
stereo
unheated
europium
lamina
−∂
##onine
sprays
##liq
crist
herm
sunny
neurot
burs
σd
dnd
kno
integ
bez
cordier
maltodextrin
ghosh
##ennial
jord
##a4
413
##rine
goat
endeav
b11
##ortech
universality
##add
##och2
oligosaccharide
σ22
plasticized
2⋅
furniture
##assay
ch3co
##number
037
22°c
bioaug
322
malic
##oprot
fee
269
calibrating
hormone
direc
coats
profiler
microreactors
##4o7
eigenm
homem
gpt
jetting
attracts
toa
##ixed
dissociates
##elo
eggs
o4
overexpressed
slits
corridor
dmm
##∑p
steeply
lethal
rez
2005a
uo
hardwood
flying
##vk
interconnect
bha
wakes
seph
925
titr
##foils
535
unsteadiness
vene
globules
##scan
lsmo
usepa
cantilevers
cruise
your
36h
refrigerated
tungstate
preheater
##2019
monitors
desorbs
rmb
understandable
paam
preload
##v3
avalanche
pycn
hyaluronic
##utal
##otoxin
dock
unimodal
bounce
##107
confluence
##olids
##azite
gev
topical
smt
hydrogenotrophic
electr
newman
epsrc
##rons
hexavalent
hors
senior
frenkel
1173
##2015
hydroxypropyl
lipo
saint
351
fifty
amendments
keq
##x1x2
biosystems
manning
##viewe
overlooked
qe−
##worm
##tiful
##ϕn
##iside
misleading
cropping
∂uj
prf
ξj
deflected
7ml
fames
gdh
isolating
novozym
buckled
biortech
herbicide
##ulphate
nonstation
ntc
##lowers
csl
polyole
4t
tied
hfs
kik
xylanases
transports
otu
τm
##alling
frr
lacoo3
dge
##alo
##ψ2
##faces
footing
cumbers
ladder
transmitter
##bus
prisms
swift
hemoglobin
dfg
vmd
lih
talent
##k∈
antecedent
bart
048
##jima
hein
40μm
distributing
impaction
##ardo
schedules
niu
discretised
dichromate
##rotic
pras
##μgml−1
gadolinium
emphasizing
inhaled
backwashing
metering
interviewe
##ographs
7500
##dahl
wrapping
dpf
requested
mww
filed
##odextrins
##σy
##→4
##cht
shoulders
galacturonic
##tie
##oler
svi
bears
##ivas
675
##anting
dripping
cr2
amido
02m
anthocyanins
nbo
degeneracy
baked
polymerizations
cck
flocculated
closeness
30h
nanoclay
ccn
##×15
1∕2
3±0
amberlite
ζ2
polyl
diluents
##unit
hydriding
corium
unve
##enza
θp
chemie
pentose
ldo
mosaic
##ppo
piperazine
0−
vwr
φm
tries
cumbersome
eigenfrequ
λr
15mg
##cd0
chirality
strings
1−η
##rack
genomes
kubelka
artery
photomultipl
diffractions
conformity
tannin
ica
358
342
pereira
##ogue
##imedes
excretion
hotspots
transplantation
cpi
mushy
taxes
aspar
##imethoxysilane
λf
∼200
colomb
40mg
declar
lactis
ibp
##opa
feedforward
##eling
fullerenes
homemade
armchair
pars
##gren
356
##√3
ecd
8±0
calibrations
simpson
c∞
ebr
usgs
bracket
bifeo3
δg0
confusion
##fting
##invent
##cl−
gibbsite
hbs
##andes
impeded
symbiosis
codoped
yarns
##isers
##triethoxysilane
equating
chalk
scg
bmi
tod
tbhp
nanomed
ard
bi2te3
##3cm−1
0for
m7
##lh
labram
##bour
polyox
osse
weaknesses
rounds
u˙
discour
##oglycan
##optimal
sfm
ruther
##imensionless
aro
interband
proto
allylic
yo
##amylase
1018
nrc
conclusive
ligated
##ohydrin
nanoemulsions
crystallizes
##bea
paragraphs
hyperthermia
##×b
nice
8min
ε˙
recalculated
##een
##∈vh
1000k
crosslinks
hod
hct
##stant
##plastic
−θ
25min
##μn
rash
##avi
cordierite
elucidation
vanished
dial
##cience
##wk
monochromatized
feni
rationalized
##cost
advancements
##alone
proposals
##sized
jimenez
responds
endocrine
##q¯
differencing
gasses
effected
copc
##ectable
underflow
stiffnesses
occupational
##ipping
peels
smd
spherul
326
homeostasis
s∗
fpu
##o24
xfem
##dj
##entified
insectic
brb
tfe
cuox
##inafter
γj
kα1
resilient
##3p
centering
kirk
rum
##fuel
aspartic
042
historic
ctm
dewetting
normalize
##rances
qst
pao
2z
ω¯
fluorocarbon
superconductors
hydrographs
diblock
htp
##cycle
anes
##ika
squeezing
pc2
logger
a10
unr
cma
preca
formerly
ρn
1951
hydrolase
gixrd
##114
mape
masking
dη
jah
##−7
heaviside
1×10−3
nud
studio
photochromic
silanols
pdh
phyll
imports
missions
##orus
protonic
srf
appreciation
##hoe
∫v
##μt
commin
059
ruc
thix
##azo
500k
bsg
disconnected
precaution
pace
concentrator
##fitting
sensitizer
delim
curl
perce
2008b
wrote
##∼2
##ivalent
impregnating
mesostructure
mastersizer
boud
coom
subgr
9wt
##kevich
fept
nial2o4
e5
forecasted
##olybd
nuclides
613
wse2
1nd
limt→∞
factorization
qq
departments
inkj
appra
protruding
150μm
flatter
superlattices
millimeter
ssr
koch
anticorrosion
hba
pml
frustr
100h
feedwater
bingham
k6
550nm
tributaries
ramped
ξn
1022
250nm
23°c
##90cm−1
hughes
##orius
1z
xyn
341
biosorbents
##ˆn
maple
dismant
prepolymer
inducer
arches
timescales
tmos
brackish
repetitions
bibli
noticing
dwellings
##enet
##rami
##rystals
steril
##oglucan
nanopowders
δgh
softwood
peltier
whisker
1u
6±0
yad
22μm
##μj
lucifer
2η
tij
lactoglobulin
##abc
dλ
counterion
12n
dtx
recalling
12g
waveforms
couette
yx
1017
##tize
overgrowth
nonc
responsiveness
dwt
##tinuous
transfected
generalize
8cm
mwd
121°c
##gaard
papain
##dar
toxicological
huggins
interpenetrating
n×n
300μm
stemming
methacrylic
scd
multitude
40g
qms
μp
telec
downscaling
chronoamperometry
pch
##perm
0mol
σj
revenues
hβ
fundamentals
##area
##enetic
catenary
hereinafter
nanofiller
046
##linked
##σij
huckel
salient
joseph
reproductive
tif
cef
inverter
graphitized
feii
schlier
1→4
methoxyl
##tify
polyimides
##ophyll
785
escaping
backflow
complicate
fishing
##igram
labview
thermostable
sleep
smm
##σn
##cfu
cush
∂x2
secant
##parameter
q∗
##iegler
##bard
inse
##∂r2
407
##ikawa
##atech
##factors
imf
treats
##uu
spes
takara
electrostatically
##10cm−1
s3a
mdr
##kle
asδ
perit
poms
##adic
coral
sterically
nmpc
methylimidazole
##tte
##∂g
rush
134a
cph
pfas
mineralogy
inkjet
4±0
k→
chal
recognizing
honey
cereal
laves
##opal
ambiguity
τk
destroying
exposition
delicate
asl
##force
250mm
##airs
##urizing
rutherford
δγ
352
pbi2
##nals
1023
socioeconomic
uq
conserving
schlieren
xv
incompatibility
scheduled
cultivars
vos
##λ3
##sur
electronically
tetrachloride
naz
upscaling
voxels
hect
asw
owns
fss
##hot
azobenzene
thiocyanate
jarosite
sato
omm
30ma
galena
outwards
fibrosis
downwind
persists
hyperc
metagen
forschungs
jat
##iano
ϕm
##qe2
##iexp
phthalocyanines
##dles
##echnical
##osporium
j3
##rem
reward
##ocin
prototypes
macrov
jeong
f12
##orro
##cosφ
selects
##ymmetrical
##ewski
resides
##cmc
internals
##tail
unob
pushover
3π
gou
##nier
compl
##αg
oxidising
ωf
cocktail
##ˆj
activators
geos
453
isotop
tunnelling
graphic
feb
##cient
keyhole
rox
##−tc
gqd
414
##elter
eugen
bwo
seat
ti3al
revolutions
aroused
registration
nus
vdf
##sorption
−13
##xr
##chel
fibronectin
gluco
drains
tkn
ecoinvent
sbm
nanoflowers
ids
518
aap
nbn
anhui
sdr
wester
##mmoll−1
##¯p
##ceo2
ile
comparably
iit
jy
fred
##235
chebys
jsps
surely
organisational
proximal
##hom
##neg
trenches
g12
##hj
##ball
##¯t
kβ
dmdbt
kits
nematic
maldistribution
φk
##oons
msio2
##fw
##ppb
dpd
p21
mn0
mpm
50min
pipette
relieve
κb
sme
phytor
##∂2t
r˜
513
reusing
puo2
cyclohexyl
districts
bottoms
unfilled
100rpm
enzymatically
archimedes
486
polycation
pursue
jacketed
thiele
workability
mediating
substructures
##3o12
mrr
transonic
electroos
20kv
357
odt
phosphide
unreliable
##nell
ttip
airlift
concretes
##iah
##−13
unfolded
gd3
hif
vanc
lesions
##−ln
jak
044
333k
existent
journals
amphoteric
reconstituted
εb
μk
##init
spv
contrasted
teoa
fulvic
micropollutants
mount
thrice
##tij
preconditioning
nise
airtight
phema
##bling
##kker
bist
mdi
u∈
##rometric
##203
plantation
faulty
ℏω
hα
berkovich
humidifier
mucosa
1253
495
in2
thermophoretic
##rafts
prostate
##def
##omod
##ssen
##dao
muscov
fim
5bar
mandel
academia
derivations
xz
##hydrite
accretion
εn
##pot
uij
neglects
m23c6
ρj
rearrangements
strengthens
employee
cellulolytic
372
corncob
pang
∼60
regularized
##xime
##chaft
apo
prolifer
revis
##far
##itab
enforcement
rpmi
deciding
si4
jb
##arya
florida
terminology
feiii
##hydrogen
straining
090
grading
seasonality
∫s
prod
propri
454
##116
enr
chebyshev
tetrafluor
desilic
299
344
##sinα
lysate
predictability
schneider
puc
nbc
##dinger
premium
moo
displacing
filtrates
7°c
323k
lmo
invoked
behavioural
weee
spectrofluor
vand
deaths
##pour
##iens
carbonic
409
phytorem
tmds
##q−1
##ensors
glycoprotein
##ctc
##ometal
##−ψ
##anta
invisible
##paper
wright
φt
##1m
##ahydrate
##∑s
aspart
outlier
jain
##lk
ptms
marshall
uph
managerial
pinhole
gep
etoac
orderly
davies
tdi
muscovite
crosswind
microprobe
pns
##1c
##measured
facades
oligonucleotide
eoc
##qk
##idel
pouring
folate
thermocapillary
δη
inaccessible
geopolymers
biosurfactants
pdmaema
reprocessing
##amped
##⋯⋯
metrol
offsp
##ωn
##orescent
nanopowder
yes
##4d
chromatic
spectrometric
utmost
bottomed
integrin
tailed
microfib
affords
712
hmim
##mol−1k−1
2mpa
##ild
12ρ
searches
7±0
strat
##ulfone
subsidence
uo22
retailers
jang
ωh
##∫t
lcd
depicting
##uryl
ferreira
hoh
##chell
hydrolyzing
##thanes
airport
##acetone
##nov
349
npb
αa
barrer
metabolized
lmp
buses
physiochemical
1580
prototyp
715
navig
diminution
ψj
∂k
brooks
s2o82−
meshfree
cytokine
tetral
##valu
##any
dlvo
528
δh0
polyacrylonitrile
##oco
−14
a8
plough
d11
lna
brucite
##∀i
cn−
polymethyl
minimising
och2
##δf
turbom
subroutine
−60
moe
1073k
thruster
##vo3
berlin
racem
5×10−5
israel
gcc
085
545
pess
asep
−∂p
lth
##ointegration
responded
nets
##006
##ochar
holders
eppendorf
onc
cpb
νi
parental
supplements
kendall
1030
hilbert
∑i∈
##h14
##ounding
hdc
rationally
wearable
quantiles
logp
ieq
k10
arene
photolithography
inhabit
daniel
zrb2
2oh−
polydimethylsiloxane
blg
doctor
hopf
##1k
saa
constriction
bowl
##aut
lyophilization
dehp
##planar
freeboard
anisole
mapbi3
trifluoroacetic
cex
vend
##×c
alexander
6l
dud
wco
li3
segregate
##ritol
dwc
cloudy
##akov
squid
unic
hosse
65°
hanging
quotient
leverage
simulators
##jun
checks
##lov
εl
documentation
imo
##tsch
ni1
##meq
threonine
350nm
commodities
rit
phenylenediamine
harbor
1σ
heck
100s
moo4
hypert
##zel
pt1
tau
##alcoh
dbsa
photooxidation
996
requisite
prescrib
interdisciplinary
minich
inaccuracies
chemistries
rumor
##urin
churn
ωd
##∫0l
##ouses
swc
fsw
100khz
endos
equidistant
043
##x5
ptb
hereby
260°c
octene
sider
40k
diaster
photomultiplier
rtp
##cm3g−1
lh2
advent
magnetoresistance
apertures
w5
##1p
switchgrass
##tites
pgma
neb
embank
##pad
##∂t∂t
353k
parity
raster
∼13
##2014
phenanthroline
ferrihydrite
aph
scouring
lithology
granulated
throttle
−w
quencher
victor
##ike
222rn
9mg
##vik
ellipsometer
sips
##iq
##al3
creative
lnk
anthraquinone
319
##burst
##wei
loci
wallis
vega
##cao
brij
castro
n5
623k
symbolic
violated
cpr
kic
kac
hooke
##o3−
##umo
mutated
micromixing
terephthalic
niooh
beverage
sae
##1−α
##reaction
leh
s2b
embryonic
##δl
##vw
##yles
##assic
benchmarks
discoloration
initialize
autore
nel
##˙1
q˜
##tek
optoelectronics
kov
cdcl2
lno
salv
ρt
##ophenes
pyrim
lycop
1λ
offic
intrac
admixture
##actor
tta
##verty
fucoidan
nvp
collects
trid
tescan
circularity
oca
##∇u
##h11
dimethylamin
##cs2
asparag
gpp
glycolic
3hz
2004a
phosphoryl
##ige
423k
marching
dutch
oxidic
scler
##⋅⋅
phytoremediation
##β3
pgm
multistep
614
fst
waveguides
philosophy
tortuous
λe
greener
icg
elastomeric
methanolysis
outgassing
leis
annot
orientational
preceded
forch
fundacao
m9
spint
butler
dld
mash
vil
##⩽c
stopper
tethered
am1
##∂u∂y
##imin
immense
1n−1
decanted
sos
cbp
conscious
oxidizes
notes
cff
ocn
2co3
##×h
phytoplankton
x12
teh
##acyt
1954
lamno3
##uffs
preventive
competence
kmax
tartrate
tributary
smf
ishii
injectable
emr
avicel
##usi
293k
commensurate
pdl
bipo4
r1234
flatness
dissemination
gala
polyvinylpyrrolidone
##⋅s
elaboration
detects
squeezed
wtp
e→
theme
##inj
coflow
valine
mij
##ρb
poro
041
[...]
